{"version":"1.0","truncation":null,"padding":null,"added_tokens":[{"id":0,"special":true,"content":"[PAD]","single_word":false,"lstrip":false,"rstrip":false,"normalized":false},{"id":1,"special":true,"content":"[UNK]","single_word":false,"lstrip":false,"rstrip":false,"normalized":false},{"id":2,"special":true,"content":"[CLS]","single_word":false,"lstrip":false,"rstrip":false,"normalized":false},{"id":3,"special":true,"content":"[SEP]","single_word":false,"lstrip":false,"rstrip":false,"normalized":false},{"id":4,"special":true,"content":"[MASK]","single_word":false,"lstrip":false,"rstrip":false,"normalized":false}],"normalizer":{"type":"BertNormalizer","clean_text":true,"handle_chinese_chars":true,"strip_accents":null,"lowercase":true},"pre_tokenizer":{"type":"BertPreTokenizer"},"post_processor":null,"decoder":{"type":"WordPiece","prefix":"##","cleanup":true},"model":{"type":"WordPiece","unk_token":"[UNK]","continuing_subword_prefix":"##","max_input_chars_per_word":100,"vocab":{"[PAD]":0,"[UNK]":1,"[CLS]":2,"[SEP]":3,"[MASK]":4,"\"":5,"1":6,"_":7,"a":8,"b":9,"c":10,"d":11,"e":12,"f":13,"g":14,"h":15,"i":16,"j":17,"k":18,"l":19,"m":20,"n":21,"o":22,"p":23,"q":24,"r":25,"s":26,"t":27,"u":28,"v":29,"w":30,"x":31,"y":32,"z":33,"〨":34,"鈥":35,"##a":36,"##s":37,"##t":38,"##e":39,"##n":40,"##d":41,"##r":42,"##o":43,"##b":44,"##u":45,"##l":46,"##p":47,"##m":48,"##y":49,"##i":50,"##h":51,"##c":52,"##k":53,"##j":54,"##v":55,"##g":56,"##f":57,"##w":58,"##z":59,"##x":60,"##q":61,"##mb":62,"##in":63,"##umb":64,"##umbr":65,"##ou":66,"th":67,"##er":68,"numbr":69,"to":70,"you":71,"##on":72,"##ll":73,"##at":74,"##ing":75,"##en":76,"##or":77,"##an":78,"##es":79,"##re":80,"##om":81,"##ow":82,"the":83,"##ar":84,"an":85,"##ed":86,"##ay":87,"##et":88,"##it":89,"##ve":90,"ha":91,"##st":92,"in":93,"##ot":94,"ca":95,"wh":96,"##le":97,"##is":98,"me":99,"on":100,"it":101,"##ut":102,"and":103,"##numbr":104,"is":105,"re":106,"##ly":107,"go":108,"##one":109,"##ic":110,"we":111,"for":112,"st":113,"be":114,"of":115,"my":116,"##al":117,"##as":118,"call":119,"your":120,"##id":121,"##gh":122,"##ch":123,"##ent":124,"##im":125,"##ill":126,"##ome":127,"sh":128,"do":129,"he":130,"##ke":131,"that":132,"lo":133,"##op":134,"##ri":135,"##xt":136,"##ere":137,"have":138,"so":139,"can":140,"##ght":141,"li":142,"##ac":143,"##ad":144,"ne":145,"##ust":146,"are":147,"no":148,"or":149,"now":150,"te":151,"not":152,"##od":153,"ur":154,"##ld":155,"ch":156,"##ee":157,"get":158,"##ur":159,"at":160,"##ith":161,"##th":162,"##end":163,"##am":164,"##ob":165,"but":166,"##ver":167,"co":168,"##se":169,"##ight":170,"##ess":171,"##ec":172,"##un":173,"##ry":174,"with":175,"##oney":176,"##ant":177,"fr":178,"pl":179,"##ion":180,"##pp":181,"##ir":182,"will":183,"if":184,"##sy":185,"as":186,"money":187,"just":188,"up":189,"am":190,"##nd":191,"##il":192,"##symb":193,"how":194,"##ree":195,"pr":196,"ok":197,"this":198,"##symbnumbr":199,"al":200,"lt":201,"##day":202,"##ter":203,"don":204,"what":205,"wor":206,"##ce":207,"gt":208,"moneysymbnumbr":209,"free":210,"kn":211,"when":212,"##ge":213,"##all":214,"out":215,"de":216,"##ate":217,"any":218,"##ake":219,"all":220,"com":221,"from":222,"##ea":223,"good":224,"##est":225,"day":226,"know":227,"ll":228,"##ab":229,"got":230,"su":231,"ab":232,"cl":233,"##us":234,"##ine":235,"##ould":236,"##ile":237,"tim":238,"sp":239,"##ol":240,"like":241,"##out":242,"want":243,"was":244,"##king":245,"text":246,"con":247,"gu":248,"then":249,"##ers":250,"##ice":251,"##and":252,"##nt":253,"##ore":254,"min":255,"love":256,"there":257,"come":258,"##art":259,"its":260,"txt":261,"##if":262,"time":263,"only":264,"##ard":265,"send":266,"bo":267,"##ek":268,"did":269,"##ack":270,"mob":271,"##ive":272,"some":273,"sm":274,"week":275,"##ink":276,"po":277,"##ain":278,"##ish":279,"sa":280,"wat":281,"numbrp":282,"##iss":283,"##ally":284,"rep":285,"need":286,"see":287,"se":288,"fin":289,"##ct":290,"sor":291,"than":292,"ar":293,"by":294,"mu":295,"today":296,"lat":297,"ph":298,"happ":299,"##xx":300,"##ick":301,"she":302,"one":303,"stop":304,"##ite":305,"wa":306,"going":307,"ma":308,"##ok":309,"won":310,"##ck":311,"ever":312,"home":313,"##sg":314,"da":315,"ton":316,"af":317,"im":318,"about":319,"hi":320,"new":321,"##ul":322,"en":323,"lor":324,"##ound":325,"##sh":326,"tell":327,"sorry":328,"##reat":329,"ex":330,"still":331,"think":332,"mobile":333,"reply":334,"##leas":335,"off":336,"back":337,"##ast":338,"bu":339,"##ect":340,"##age":341,"##pt":342,"dont":343,"our":344,"pleas":345,"aw":346,"fri":347,"un":348,"##ope":349,"##ra":350,"say":351,"##ie":352,"miss":353,"take":354,"who":355,"##ady":356,"ask":357,"her":358,"msg":359,"##ven":360,"they":361,"us":362,"##row":363,"##her":364,"##ving":365,"##our":366,"##ame":367,"later":368,"every":369,"please":370,"##ia":371,"##act":372,"pls":373,"mess":374,"##os":375,"meet":376,"qu":377,"##mm":378,"##mor":379,"##ig":380,"dear":381,"friend":382,"le":383,"been":384,"##na":385,"##ation":386,"br":387,"tr":388,"yes":389,"##ning":390,"where":391,"phone":392,"night":393,"##ace":394,"wait":395,"has":396,"here":397,"pri":398,"##aim":399,"bab":400,"hope":401,"man":402,"well":403,"after":404,"great":405,"mo":406,"##ud":407,"##lf":408,"work":409,"much":410,"ac":411,"ag":412,"##hing":413,"thing":414,"##ide":415,"claim":416,"oh":417,"##ag":418,"##ep":419,"##ze":420,"##ort":421,"bl":422,"him":423,"win":424,"ad":425,"##fe":426,"hey":427,"thank":428,"ve":429,"##ff":430,"too":431,"##ong":432,"more":433,"numb":434,"##so":435,"##thing":436,"wan":437,"##ach":438,"##ub":439,"cont":440,"happy":441,"##ak":442,"had":443,"let":444,"lea":445,"##der":446,"##oy":447,"##up":448,"##ha":449,"should":450,"give":451,"ser":452,"way":453,"make":454,"##red":455,"##eel":456,"comp":457,"som":458,"##ww":459,"prob":460,"feel":461,"ro":462,"sw":463,"www":464,"##ass":465,"dr":466,"mor":467,"##ting":468,"##me":469,"##xnumbr":470,"##morrow":471,"may":472,"right":473,"number":474,"try":475,"message":476,"##way":477,"even":478,"sle":479,"##ear":480,"##oo":481,"tomorrow":482,"cash":483,"prize":484,"##ready":485,"##eep":486,"already":487,"##li":488,"them":489,"fe":490,"##ail":491,"care":492,"amp":493,"said":494,"##lp":495,"doing":496,"coll":497,"somet":498,"dun":499,"yea":500,"##ery":501,"really":502,"yeah":503,"##ough":504,"##own":505,"life":506,"sleep":507,"lu":508,"why":509,"fu":510,"mon":511,"show":512,"bet":513,"per":514,"would":515,"##ial":516,"find":517,"app":518,"##ue":519,"##um":520,"##ance":521,"pick":522,"##ap":523,"car":524,"last":525,"very":526,"##ip":527,"##ist":528,"##alk":529,"urg":530,"serv":531,"morning":532,"nok":533,"babe":534,"gr":535,"keep":536,"##au":537,"##no":538,"##ount":539,"buy":540,"thanks":541,"cust":542,"down":543,"sent":544,"uk":545,"cos":546,"anything":547,"sure":548,"acc":549,"oth":550,"wish":551,"lol":552,"again":553,"year":554,"start":555,"contact":556,"##ary":557,"##other":558,"also":559,"jo":560,"over":561,"urgent":562,"dis":563,"##be":564,"##int":565,"play":566,"gud":567,"end":568,"bef":569,"watch":570,"dec":571,"ya":572,"##ans":573,"##ity":574,"nokia":575,"##line":576,"##ous":577,"##ich":578,"spec":579,"something":580,"fl":581,"fir":582,"ho":583,"##ner":584,"##ment":585,"hell":586,"cant":587,"finish":588,"could":589,"pers":590,"##ss":591,"help":592,"award":593,"before":594,"dat":595,"gon":596,"id":597,"ring":598,"val":599,"##sc":600,"##ange":601,"soon":602,"exp":603,"lot":604,"wk":605,"##eed":606,"##ms":607,"##ys":608,"cam":609,"other":610,"first":611,"his":612,"##ble":613,"##ouch":614,"chat":615,"person":616,"fo":617,"net":618,"were":619,"##ose":620,"##ies":621,"##iday":622,"someone":623,"custom":624,"late":625,"mat":626,"nice":627,"sc":628,"went":629,"next":630,"place":631,"around":632,"tonight":633,"##ways":634,"hav":635,"which":636,"##ise":637,"does":638,"word":639,"##able":640,"tone":641,"ear":642,"pic":643,"##ought":644,"##orm":645,"chec":646,"collect":647,"service":648,"act":649,"gir":650,"part":651,"sat":652,"wif":653,"forg":654,"##ade":655,"sms":656,"many":657,"customer":658,"land":659,"mar":660,"pe":661,"##uff":662,"##ind":663,"always":664,"gonna":665,"##to":666,"##rs":667,"##iz":668,"bec":669,"shop":670,"char":671,"cost":672,"leave":673,"par":674,"res":675,"##mber":676,"##enumbr":677,"rece":678,"minut":679,"friends":680,"cr":681,"eat":682,"pre":683,"sch":684,"sun":685,"yet":686,"##el":687,"##ure":688,"##cess":689,"plan":690,"special":691,"hol":692,"##ah":693,"##iv":694,"told":695,"##ream":696,"haha":697,"real":698,"##self":699,"##ppm":700,"pro":701,"boy":702,"things":703,"hello":704,"bit":705,"pay":706,"##mo":707,"waiting":708,"month":709,"girl":710,"ah":711,"bir":712,"em":713,"fine":714,"hour":715,"sl":716,"use":717,"yo":718,"heart":719,"coming":720,"best":721,"sec":722,"##ty":723,"##ro":724,"thk":725,"##arant":726,"reach":727,"look":728,"##ople":729,"##obo":730,"guarant":731,"happen":732,"done":733,"dri":734,"fun":735,"long":736,"name":737,"same":738,"tw":739,"talk":740,"##ft":741,"##wor":742,"##ouse":743,"numbrst":744,"ans":745,"getting":746,"##unch":747,"##ions":748,"people":749,"guaranteed":750,"din":751,"op":752,"tri":753,"##are":754,"##ever":755,"##ress":756,"##gg":757,"thought":758,"god":759,"stuff":760,"class":761,"check":762,"xxx":763,"##ao":764,"##eet":765,"##ward":766,"##ond":767,"##ence":768,"##ang":769,"inf":770,"mins":771,"didn":772,"imp":773,"room":774,"cs":775,"house":776,"la":777,"lunch":778,"pa":779,"vide":780,"##een":781,"##joy":782,"##wn":783,"##oth":784,"##ode":785,"enjoy":786,"##raw":787,"add":788,"holiday":789,"ill":790,"job":791,"##rat":792,"##ix":793,"##co":794,"numbrm":795,"##ath":796,"live":797,"smile":798,"draw":799,"lar":800,"never":801,"##ody":802,"##iff":803,"proble":804,"sweet":805,"bed":806,"big":807,"line":808,"wr":809,"yup":810,"##oke":811,"##uz":812,"being":813,"days":814,"sub":815,"mind":816,"few":817,"better":818,"ringt":819,"bt":820,"di":821,"hur":822,"pobo":823,"##lo":824,"##ple":825,"##ful":826,"##ents":827,"thats":828,"cool":829,"guess":830,"sex":831,"meeting":832,"trying":833,"account":834,"ent":835,"##av":836,"##mas":837,"##cl":838,"numbrppm":839,"having":840,"##lect":841,"ready":842,"shit":843,"chi":844,"##ause":845,"##scri":846,"sk":847,"##ts":848,"##em":849,"##era":850,"weekend":851,"luv":852,"birth":853,"dar":854,"sir":855,"##ually":856,"##ily":857,"numbrw":858,"##rect":859,"half":860,"att":861,"world":862,"latest":863,"receive":864,"vouch":865,"##oking":866,"##let":867,"##ious":868,"##ved":869,"reme":870,"chance":871,"book":872,"poly":873,"##ounds":874,"bring":875,"because":876,"video":877,"problem":878,"bor":879,"den":880,"dad":881,"eas":882,"face":883,"put":884,"##tle":885,"##ew":886,"##get":887,"stay":888,"nothing":889,"prin":890,"##eak":891,"box":892,"wanna":893,"awarded":894,"camera":895,"av":896,"el":897,"less":898,"mr":899,"nt":900,"sim":901,"ta":902,"tm":903,"numbrth":904,"##ons":905,"another":906,"liao":907,"frnd":908,"##ably":909,"guys":910,"##ands":911,"##ages":912,"join":913,"bus":914,"jus":915,"kiss":916,"wnumbr":917,"##sub":918,"##ny":919,"##ng":920,"##ool":921,"##med":922,"##kk":923,"##ank":924,"ind":925,"into":926,"select":927,"wonder":928,"offer":929,"quest":930,"quite":931,"fuck":932,"shows":933,"dinner":934,"birthday":935,"remember":936,"bad":937,"might":938,"sur":939,"##grat":940,"##ited":941,"inv":942,"congrat":943,"post":944,"##ult":945,"landline":946,"ringtone":947,"dream":948,"hu":949,"lit":950,"mom":951,"set":952,"##ph":953,"##ping":954,"##qu":955,"##ins":956,"numbrh":957,"##ently":958,"hear":959,"##urn":960,"##iles":961,"deli":962,"##ift":963,"wont":964,"##ude":965,"apply":966,"watching":967,"forgot":968,"##work":969,"answ":970,"deliver":971,"aight":972,"cra":973,"det":974,"hot":975,"pain":976,"pass":977,"run":978,"tv":979,"##ell":980,"##body":981,"##vie":982,"##ones":983,"##ese":984,"mean":985,"once":986,"reg":987,"calls":988,"called":989,"supp":990,"speak":991,"point":992,"baby":993,"probably":994,"early":995,"two":996,"diff":997,"hun":998,"rate":999,"sn":1000,"und":1001,"##ta":1002,"##gry":1003,"##zy":1004,"##ouble":1005,"numbrg":1006,"##ens":1007,"inter":1008,"stud":1009,"##ime":1010,"shall":1011,"list":1012,"numbrpm":1013,"thanx":1014,"mail":1015,"left":1016,"maybe":1017,"actually":1018,"minutes":1019,"princess":1020,"code":1021,"must":1022,"made":1023,"##lt":1024,"##vd":1025,"##ween":1026,"tot":1027,"##ory":1028,"rec":1029,"read":1030,"log":1031,"orange":1032,"col":1033,"##ola":1034,"conf":1035,"didnt":1036,"##ship":1037,"office":1038,"dunno":1039,"luck":1040,"between":1041,"shopping":1042,"easy":1043,"sit":1044,"##ait":1045,"##aut":1046,"##bo":1047,"##les":1048,"##lie":1049,"##kes":1050,"numbrnd":1051,"##reak":1052,"head":1053,"##right":1054,"anyway":1055,"##xxxx":1056,"tones":1057,"everything":1058,"leh":1059,"most":1060,"evening":1061,"##ails":1062,"##noon":1063,"network":1064,"tmr":1065,"little":1066,"under":1067,"ap":1068,"cut":1069,"hmm":1070,"mus":1071,"sin":1072,"unt":1073,"##date":1074,"##ock":1075,"##per":1076,"##ma":1077,"##iy":1078,"##ves":1079,"those":1080,"town":1081,"##ather":1082,"##ret":1083,"looking":1084,"working":1085,"enough":1086,"##ations":1087,"true":1088,"full":1089,"wife":1090,"school":1091,"##load":1092,"selected":1093,"answer":1094,"cle":1095,"ev":1096,"kind":1097,"opt":1098,"ty":1099,"wot":1100,"##pl":1101,"##ier":1102,"##ert":1103,"##anc":1104,"while":1105,"che":1106,"without":1107,"texts":1108,"await":1109,"missing":1110,"asked":1111,"afternoon":1112,"##ortant":1113,"##ister":1114,"hold":1115,"important":1116,"sexy":1117,"entry":1118,"cred":1119,"gift":1120,"red":1121,"rent":1122,"ter":1123,"test":1124,"wen":1125,"xmas":1126,"##lim":1127,"##wh":1128,"though":1129,"came":1130,"okay":1131,"wanted":1132,"boxnumbr":1133,"enter":1134,"says":1135,"valid":1136,"else":1137,"details":1138,"since":1139,"until":1140,"til":1141,"wake":1142,"walk":1143,"##use":1144,"##ps":1145,"##ian":1146,"##fer":1147,"hair":1148,"means":1149,"##numbrw":1150,"goes":1151,"##imal":1152,"##opt":1153,"update":1154,"abt":1155,"able":1156,"guy":1157,"unsub":1158,"collection":1159,"resp":1160,"poboxnumbr":1161,"numbrhrs":1162,"colour":1163,"music":1164,"fam":1165,"ip":1166,"juz":1167,"ten":1168,"tak":1169,"##ave":1170,"##ues":1171,"##uct":1172,"##lly":1173,"##ates":1174,"haven":1175,"rem":1176,"str":1177,"##ason":1178,"##ths":1179,"##ames":1180,"##oneysymbnumbr":1181,"plz":1182,"plus":1183,"price":1184,"worry":1185,"club":1186,"times":1187,"aft":1188,"eng":1189,"away":1190,"missed":1191,"messages":1192,"##ational":1193,"drink":1194,"years":1195,"decimal":1196,"havent":1197,"question":1198,"double":1199,"mnumbr":1200,"ny":1201,"pub":1202,"till":1203,"##tt":1204,"##ds":1205,"##dy":1206,"##ren":1207,"##ug":1208,"##va":1209,"top":1210,"##any":1211,"##ital":1212,"##ition":1213,"beaut":1214,"order":1215,"##ither":1216,"alright":1217,"##terday":1218,"weekly":1219,"saw":1220,"mum":1221,"yesterday":1222,"drop":1223,"disc":1224,"slow":1225,"bored":1226,"cor":1227,"date":1228,"dude":1229,"eve":1230,"hand":1231,"hard":1232,"ld":1233,"nite":1234,"oso":1235,"tick":1236,"##side":1237,"##ual":1238,"##pe":1239,"##msg":1240,"##zz":1241,"these":1242,"##atch":1243,"##arch":1244,"##its":1245,"inst":1246,"online":1247,"goin":1248,"##ices":1249,"##ical":1250,"yours":1251,"coz":1252,"making":1253,"makes":1254,"friendship":1255,"lei":1256,"feeling":1257,"food":1258,"words":1259,"email":1260,"open":1261,"hurt":1262,"##empt":1263,"attempt":1264,"bath":1265,"cur":1266,"card":1267,"either":1268,"fast":1269,"norm":1270,"national":1271,"pm":1272,"vi":1273,"vis":1274,"##og":1275,"##br":1276,"##lin":1277,"##ling":1278,"##less":1279,"##pr":1280,"##fu":1281,"##inking":1282,"##ator":1283,"haf":1284,"inc":1285,"yourself":1286,"##ried":1287,"change":1288,"prom":1289,"search":1290,"ard":1291,"grnumbr":1292,"second":1293,"driving":1294,"tried":1295,"inform":1296,"address":1297,"dreams":1298,"delivery":1299,"listen":1300,"family":1301,"##ttp":1302,"bon":1303,"both":1304,"break":1305,"er":1306,"fant":1307,"game":1308,"hop":1309,"http":1310,"med":1311,"mur":1312,"row":1313,"sing":1314,"sad":1315,"tc":1316,"touch":1317,"wed":1318,"wid":1319,"##time":1320,"##ood":1321,"thr":1322,"toget":1323,"##reet":1324,"##uth":1325,"belie":1326,"##alking":1327,"calling":1328,"lose":1329,"##iling":1330,"comes":1331,"wants":1332,"##iful":1333,"sae":1334,"todays":1335,"##cks":1336,"news":1337,"busy":1338,"##osed":1339,"##ign":1340,"train":1341,"priv":1342,"movie":1343,"complet":1344,"sleeping":1345,"pics":1346,"hours":1347,"trip":1348,"child":1349,"vouchers":1350,"##kku":1351,"beautiful":1352,"bonus":1353,"together":1354,"believe":1355,"aiy":1356,"bnumbr":1357,"far":1358,"ke":1359,"nat":1360,"old":1361,"ra":1362,"ret":1363,"ti":1364,"treat":1365,"war":1366,"xx":1367,"##aa":1368,"##lc":1369,"##los":1370,"##moneysymbnumbr":1371,"##ya":1372,"##ially":1373,"##cnumbr":1374,"##cking":1375,"##ga":1376,"##fr":1377,"took":1378,"##onumbr":1379,"##llow":1380,"##esh":1381,"##esome":1382,"##stand":1383,"##numbrh":1384,"story":1385,"##rist":1386,"noe":1387,"##ires":1388,"ass":1389,"smiling":1390,"saying":1391,"brother":1392,"adv":1393,"leaving":1394,"match":1395,"forget":1396,"charge":1397,"drive":1398,"direct":1399,"chikku":1400,"huh":1401,"points":1402,"study":1403,"murder":1404,"bill":1405,"cour":1406,"gd":1407,"gal":1408,"games":1409,"hit":1410,"lau":1411,"mid":1412,"pounds":1413,"rite":1414,"wil":1415,"##oice":1416,"##bp":1417,"##led":1418,"##lands":1419,"##ib":1420,"##iate":1421,"##cor":1422,"##cvd":1423,"##ject":1424,"thinking":1425,"tomo":1426,"##ony":1427,"##ower":1428,"##iting":1429,"##vel":1430,"##ict":1431,"##ided":1432,"short":1433,"loving":1434,"##amp":1435,"##irt":1436,"okie":1437,"whats":1438,"close":1439,"final":1440,"awesome":1441,"unc":1442,"##oss":1443,"started":1444,"finished":1445,"doesn":1446,"minute":1447,"secret":1448,"##scribe":1449,"##iously":1450,"avail":1451,"simple":1452,"congrats":1453,"##where":1454,"private":1455,"auct":1456,"bat":1457,"each":1458,"found":1459,"fanc":1460,"hor":1461,"kid":1462,"mine":1463,"nin":1464,"pet":1465,"pap":1466,"wit":1467,"##sp":1468,"##ege":1469,"##night":1470,"##dnumbr":1471,"##ply":1472,"##port":1473,"##man":1474,"##yl":1475,"##igh":1476,"##ible":1477,"##iness":1478,"tho":1479,"##erator":1480,"numbram":1481,"##ord":1482,"angry":1483,"##veal":1484,"cause":1485,"reveal":1486,"state":1487,"##ash":1488,"##ads":1489,"neva":1490,"worth":1491,"anyone":1492,"smoke":1493,"sell":1494,"everyone":1495,"trans":1496,"lets":1497,"services":1498,"download":1499,"valent":1500,"lots":1501,"##gging":1502,"taking":1503,"snow":1504,"##optout":1505,"unsubscribe":1506,"curr":1507,"visit":1508,"laugh":1509,"available":1510,"auction":1511,"statement":1512,"bank":1513,"dist":1514,"fa":1515,"fil":1516,"fix":1517,"jay":1518,"mot":1519,"pur":1520,"rest":1521,"sy":1522,"sis":1523,"sounds":1524,"sister":1525,"##nnumbr":1526,"##nite":1527,"##land":1528,"##esent":1529,"incl":1530,"rel":1531,"##icult":1532,"forward":1533,"stand":1534,"##entif":1535,"lover":1536,"light":1537,"tel":1538,"choo":1539,"christ":1540,"alone":1541,"ltd":1542,"whatever":1543,"knw":1544,"del":1545,"mobiles":1546,"exc":1547,"msgs":1548,"quiz":1549,"adm":1550,"company":1551,"carlos":1552,"dating":1553,"identif":1554,"valu":1555,"expires":1556,"charg":1557,"park":1558,"parents":1559,"pret":1560,"subscri":1561,"pobox":1562,"voucher":1563,"lesson":1564,"wnumbrj":1565,"confir":1566,"lucky":1567,"understand":1568,"ticket":1569,"complete":1570,"choose":1571,"bc":1572,"bout":1573,"des":1574,"ed":1575,"ext":1576,"fight":1577,"ge":1578,"gl":1579,"gone":1580,"jan":1581,"mt":1582,"men":1583,"song":1584,"##tin":1585,"##toy":1586,"##ead":1587,"##ped":1588,"##hu":1589,"##fa":1590,"##erent":1591,"##erry":1592,"##ated":1593,"##ars":1594,"reason":1595,"welc":1596,"near":1597,"teach":1598,"##eemed":1599,"##urday":1600,"##une":1601,"friday":1602,"hows":1603,"##cept":1604,"dep":1605,"def":1606,"anytime":1607,"smth":1608,"poss":1609,"needs":1610,"sem":1611,"mah":1612,"exam":1613,"mobileup":1614,"winner":1615,"content":1616,"##redi":1617,"drug":1618,"college":1619,"decided":1620,"follow":1621,"saturday":1622,"boytoy":1623,"girls":1624,"happened":1625,"##coz":1626,"wrong":1627,"wonderful":1628,"surpr":1629,"congratul":1630,"crazy":1631,"type":1632,"takes":1633,"ninumbr":1634,"identifier":1635,"mobileupdnumbr":1636,"bs":1637,"bas":1638,"cou":1639,"cine":1640,"cum":1641,"ey":1642,"gn":1643,"gy":1644,"nope":1645,"om":1646,"oredi":1647,"pol":1648,"rs":1649,"rain":1650,"sou":1651,"sal":1652,"sil":1653,"sea":1654,"sony":1655,"ts":1656,"yar":1657,"##aw":1658,"##tc":1659,"##ne":1660,"##nect":1661,"##uk":1662,"##more":1663,"##iving":1664,"##iola":1665,"##hh":1666,"##vam":1667,"##ger":1668,"numbrlands":1669,"##ating":1670,"##enna":1671,"##ors":1672,"##ester":1673,"their":1674,"ann":1675,"##itenumbr":1676,"cal":1677,"##numbrp":1678,"ref":1679,"remo":1680,"requ":1681,"lov":1682,"##ops":1683,"##oda":1684,"chea":1685,"chenna":1686,"frm":1687,"pray":1688,"press":1689,"outside":1690,"goodmor":1691,"suitenumbr":1692,"lovely":1693,"weeks":1694,"finally":1695,"used":1696,"##osp":1697,"least":1698,"comput":1699,"##lier":1700,"fucking":1701,"player":1702,"camcor":1703,"mates":1704,"party":1705,"sunday":1706,"project":1707,"operator":1708,"info":1709,"sky":1710,"darlin":1711,"mrng":1712,"frnds":1713,"interest":1714,"clean":1715,"nyt":1716,"correct":1717,"return":1718,"pretty":1719,"congratulations":1720,"chennai":1721,"goodmorning":1722,"camcorder":1723,"bb":1724,"fone":1725,"fav":1726,"gee":1727,"hm":1728,"ib":1729,"lect":1730,"mad":1731,"mate":1732,"na":1733,"own":1734,"sen":1735,"sound":1736,"yr":1737,"##ai":1738,"##pnumbr":1739,"##mob":1740,"##ize":1741,"##he":1742,"##gin":1743,"##ines":1744,"##oun":1745,"numbrt":1746,"numbrday":1747,"int":1748,"case":1749,"meant":1750,"isn":1751,"callnumbr":1752,"hee":1753,"loc":1754,"sol":1755,"##urs":1756,"##urb":1757,"freemsg":1758,"deal":1759,"spend":1760,"wasn":1761,"savam":1762,"seeing":1763,"sort":1764,"telling":1765,"thinks":1766,"offers":1767,"##astic":1768,"##ption":1769,"unlim":1770,"whole":1771,"blue":1772,"wkly":1773,"scream":1774,"earlier":1775,"##wards":1776,"numbrmths":1777,"support":1778,"difficult":1779,"hungry":1780,"credit":1781,"course":1782,"fancy":1783,"pete":1784,"motor":1785,"christmas":1786,"confirm":1787,"welcome":1788,"savamob":1789,"unlimited":1790,"age":1791,"bal":1792,"cop":1793,"count":1794,"catch":1795,"dnt":1796,"deep":1797,"eh":1798,"eg":1799,"etc":1800,"fig":1801,"father":1802,"gas":1803,"gra":1804,"hands":1805,"joy":1806,"kick":1807,"met":1808,"ru":1809,"side":1810,"tra":1811,"talking":1812,"umm":1813,"voice":1814,"##ned":1815,"##da":1816,"##ract":1817,"##lv":1818,"##mnumbr":1819,"##ience":1820,"##hn":1821,"##cent":1822,"##ji":1823,"##gy":1824,"##fone":1825,"##zed":1826,"##erif":1827,"numbru":1828,"##ative":1829,"##ett":1830,"##vey":1831,"##ote":1832,"reward":1833,"stup":1834,"caller":1835,"##chat":1836,"##imes":1837,"doin":1838,"lost":1839,"area":1840,"within":1841,"almo":1842,"knew":1843,"super":1844,"##ush":1845,"txts":1846,"self":1847,"arr":1848,"phot":1849,"phones":1850,"happiness":1851,"ago":1852,"black":1853,"numbers":1854,"complim":1855,"mayb":1856,"felt":1857,"john":1858,"march":1859,"india":1860,"invited":1861,"reading":1862,"hmmm":1863,"ldn":1864,"tired":1865,"paper":1866,"currently":1867,"valued":1868,"bslv":1869,"couple":1870,"gym":1871,"computer":1872,"motorola":1873,"balance":1874,"stupid":1875,"almost":1876,"bslvyl":1877,"air":1878,"bar":1879,"bcoz":1880,"ce":1881,"cud":1882,"die":1883,"eur":1884,"fill":1885,"fall":1886,"fact":1887,"gay":1888,"honey":1889,"hosp":1890,"kate":1891,"mod":1892,"mmm":1893,"nah":1894,"rand":1895,"sign":1896,"ugh":1897,"via":1898,"wow":1899,"##ax":1900,"##ared":1901,"##bs":1902,"##by":1903,"##uary":1904,"##cs":1905,"##care":1906,"##vr":1907,"##gn":1908,"numbry":1909,"tor":1910,"##lle":1911,"##itions":1912,"std":1913,"star":1914,"stock":1915,"##ider":1916,"##entary":1917,"heard":1918,"##key":1919,"loads":1920,"##ries":1921,"lik":1922,"gets":1923,"##und":1924,"comm":1925,"gotta":1926,"connect":1927,"sending":1928,"small":1929,"safe":1930,"seen":1931,"arg":1932,"##xxx":1933,"wah":1934,"max":1935,"bud":1936,"##ptop":1937,"uni":1938,"askd":1939,"blu":1940,"swing":1941,"shower":1942,"grins":1943,"ends":1944,"foot":1945,"picking":1946,"mark":1947,"##izz":1948,"laptop":1949,"darren":1950,"##phone":1951,"##view":1952,"supposed":1953,"##book":1954,"redeemed":1955,"rental":1956,"ipod":1957,"##fully":1958,"information":1959,"through":1960,"##frnd":1961,"uncle":1962,"disturb":1963,"charged":1964,"extra":1965,"semester":1966,"surprise":1967,"callnumbroptout":1968,"complimentary":1969,"hospital":1970,"cd":1971,"gen":1972,"hg":1973,"il":1974,"king":1975,"lnumbr":1976,"link":1977,"mm":1978,"mis":1979,"mist":1980,"nig":1981,"rak":1982,"rply":1983,"sar":1984,"turn":1985,"voda":1986,"wine":1987,"yep":1988,"##az":1989,"##aly":1990,"##rcvd":1991,"##ross":1992,"##ost":1993,"##ooth":1994,"##uc":1995,"##uck":1996,"##ler":1997,"##lic":1998,"##vin":1999,"##gs":2000,"##fect":2001,"##wise":2002,"##wnumbrw":2003,"##eral":2004,"##lla":2005,"##ings":2006,"##numbrppm":2007,"##ics":2008,"weed":2009,"sty":2010,"store":2011,"##ality":2012,"##ase":2013,"##ident":2014,"##chard":2015,"sho":2016,"dogging":2017,"loved":2018,"##oph":2019,"cance":2020,"noon":2021,"nobody":2022,"orchard":2023,"chin":2024,"chang":2025,"##uring":2026,"cover":2027,"plans":2028,"asking":2029,"asap":2030,"pract":2031,"whenever":2032,"comin":2033,"summ":2034,"abiola":2035,"spo":2036,"cons":2037,"convey":2038,"txting":2039,"somebody":2040,"poor":2041,"muz":2042,"wap":2043,"immed":2044,"usf":2045,"quick":2046,"truth":2047,"move":2048,"agenumbr":2049,"blood":2050,"wana":2051,"feels":2052,"rock":2053,"##oooo":2054,"monday":2055,"expect":2056,"checking":2057,"activ":2058,"prep":2059,"prof":2060,"##room":2061,"booked":2062,"questions":2063,"crave":2064,"register":2065,"cute":2066,"terms":2067,"entered":2068,"discount":2069,"slowly":2070,"fantas":2071,"warm":2072,"##numbrhl":2073,"wnumbrjnumbrhl":2074,"police":2075,"remove":2076,"request":2077,"lovable":2078,"hmv":2079,"cele":2080,"ben":2081,"bag":2082,"bak":2083,"cent":2084,"cup":2085,"dig":2086,"gent":2087,"gap":2088,"giv":2089,"gave":2090,"hw":2091,"ir":2092,"merry":2093,"ob":2094,"oops":2095,"pan":2096,"pack":2097,"rates":2098,"sick":2099,"tues":2100,"woke":2101,"##snumbr":2102,"##eal":2103,"##resent":2104,"##uation":2105,"##uhu":2106,"##ij":2107,"##ire":2108,"##hesh":2109,"##ks":2110,"##fl":2111,"thurs":2112,"##erm":2113,"##ergy":2114,"numbri":2115,"numbrnite":2116,"##reen":2117,"##ays":2118,"##etooth":2119,"##lex":2120,"refer":2121,"forever":2122,"street":2123,"myself":2124,"##asing":2125,"callert":2126,"doct":2127,"gettin":2128,"getzed":2129,"##unt":2130,"##irer":2131,"pres":2132,"worried":2133,"knows":2134,"clos":2135,"spl":2136,"sport":2137,"##artment":2138,"somewhere":2139,"save":2140,"water":2141,"represent":2142,"wast":2143,"mach":2144,"##okes":2145,"tonite":2146,"energy":2147,"##shine":2148,"exact":2149,"##pty":2150,"usual":2151,"trust":2152,"mov":2153,"across":2154,"bless":2155,"##aked":2156,"leaves":2157,"custcare":2158,"access":2159,"wishing":2160,"otherwise":2161,"months":2162,"empty":2163,"reached":2164,"opin":2165,"write":2166,"sknumbr":2167,"ntt":2168,"wnumbrw":2169,"moment":2170,"regard":2171,"different":2172,"england":2173,"bathe":2174,"normal":2175,"fantastic":2176,"hoping":2177,"##cnumbrnnumbr":2178,"##iately":2179,"kids":2180,"film":2181,"fixed":2182,"admirer":2183,"subscrib":2184,"tickets":2185,"glad":2186,"defin":2187,"drugs":2188,"cheap":2189,"figure":2190,"random":2191,"bluetooth":2192,"rakhesh":2193,"immediately":2194,"##uhui":2195,"callertune":2196,"representative":2197,"##cnumbrnnumbrxx":2198,"bid":2199,"bur":2200,"esp":2201,"fat":2202,"greet":2203,"ic":2204,"ive":2205,"iam":2206,"ice":2207,"jst":2208,"kan":2209,"ly":2210,"mir":2211,"mode":2212,"none":2213,"opp":2214,"pop":2215,"pound":2216,"pix":2217,"power":2218,"ran":2219,"round":2220,"tat":2221,"tough":2222,"tamp":2223,"wom":2224,"xy":2225,"yu":2226,"##ten":2227,"##rit":2228,"##uu":2229,"##la":2230,"##ls":2231,"##yal":2232,"##io":2233,"##ied":2234,"##ild":2235,"##hin":2236,"##hoo":2237,"##gr":2238,"##gues":2239,"tht":2240,"thn":2241,"numbra":2242,"numbrmor":2243,"##ont":2244,"##llent":2245,"##atar":2246,"##orn":2247,"##orge":2248,"##anumbr":2249,"##rec":2250,"##ster":2251,"##ised":2252,"meh":2253,"onumbr":2254,"ones":2255,"itself":2256,"wear":2257,"weight":2258,"##ali":2259,"##alar":2260,"dog":2261,"doll":2262,"loan":2263,"loyal":2264,"sofa":2265,"cann":2266,"##acle":2267,"tem":2268,"urself":2269,"##ures":2270,"coff":2271,"##ecially":2272,"worries":2273,"##cellent":2274,"dead":2275,"comuk":2276,"##eagues":2277,"goodnight":2278,"##used":2279,"##olog":2280,"cond":2281,"boss":2282,"seems":2283,"arm":2284,"arri":2285,"##oken":2286,"hiya":2287,"excellent":2288,"thinkin":2289,"offic":2290,"unless":2291,"user":2292,"using":2293,"accept":2294,"seriously":2295,"moral":2296,"colleagues":2297,"apprec":2298,"buying":2299,"others":2300,"against":2301,"starts":2302,"starting":2303,"ending":2304,"decide":2305,"specially":2306,"flight":2307,"flag":2308,"exper":2309,"doesnt":2310,"charity":2311,"crnumbr":2312,"sunshine":2313,"reaching":2314,"lazy":2315,"ringtones":2316,"brings":2317,"staying":2318,"lessons":2319,"mrt":2320,"wondering":2321,"hotel":2322,"passwor":2323,"meaning":2324,"sitting":2325,"situation":2326,"kinda":2327,"credits":2328,"remind":2329,"ldew":2330,"promise":2331,"children":2332,"studying":2333,"valentine":2334,"valentines":2335,"forwarded":2336,"completely":2337,"mtmsg":2338,"depend":2339,"possible":2340,"basic":2341,"eyes":2342,"south":2343,"silent":2344,"copy":2345,"summer":2346,"doctor":2347,"definite":2348,"especially":2349,"tampa":2350,"coffee":2351,"ave":2352,"aha":2353,"alex":2354,"bxnumbr":2355,"bother":2356,"creat":2357,"dam":2358,"dvd":2359,"during":2360,"egg":2361,"fing":2362,"fre":2363,"fut":2364,"giving":2365,"hr":2366,"har":2367,"hang":2368,"ju":2369,"ji":2370,"jen":2371,"keral":2372,"lou":2373,"lac":2374,"mand":2375,"mother":2376,"malar":2377,"nam":2378,"nonumbr":2379,"pc":2380,"pat":2381,"pizz":2382,"rcvd":2383,"sam":2384,"sip":2385,"tn":2386,"tu":2387,"tar":2388,"vl":2389,"vom":2390,"wt":2391,"wer":2392,"wall":2393,"wiv":2394,"yrs":2395,"##ef":2396,"##nes":2397,"##net":2398,"##ness":2399,"##oon":2400,"##ball":2401,"##boy":2402,"##lain":2403,"##po":2404,"##pobo":2405,"##mar":2406,"##ient":2407,"##hip":2408,"##cer":2409,"##ccess":2410,"##ka":2411,"##viously":2412,"##gu":2413,"##gest":2414,"throw":2415,"##eric":2416,"##eria":2417,"numbrd":2418,"##ane":2419,"##read":2420,"##arn":2421,"##etch":2422,"##ities":2423,"##itled":2424,"inside":2425,"##oting":2426,"cake":2427,"##ley":2428,"##ision":2429,"member":2430,"iss":2431,"realy":2432,"weir":2433,"beh":2434,"##als":2435,"##enty":2436,"##ention":2437,"door":2438,"heav":2439,"los":2440,"loves":2441,"##rible":2442,"lift":2443,"libr":2444,"##aces":2445,"team":2446,"##urance":2447,"cook":2448,"##unk":2449,"##unity":2450,"##anta":2451,"frens":2452,"##irs":2453,"moneysymb":2454,"however":2455,"freephone":2456,"anymore":2457,"goto":2458,"sup":2459,"success":2460,"##uss":2461,"spent":2462,"space":2463,"bold":2464,"sale":2465,"imag":2466,"high":2467,"replying":2468,"buzz":2469,"##action":2470,"##mme":2471,"lemme":2472,"brand":2473,"trouble":2474,"moon":2475,"mood":2476,"workin":2477,"letter":2478,"road":2479,"rose":2480,"swt":2481,"dress":2482,"slept":2483,"sometimes":2484,"picked":2485,"##aught":2486,"wishes":2487,"yahoo":2488,"flirt":2489,"idea":2490,"pict":2491,"planning":2492,"process":2493,"paying":2494,"slave":2495,"funny":2496,"longer":2497,"roomm":2498,"bedroom":2499,"hurts":2500,"entitled":2501,"##ava":2502,"weekends":2503,"numbrwe":2504,"polys":2505,"polyph":2506,"daddy":2507,"facebook":2508,"##onsms":2509,"joined":2510,"logo":2511,"apartment":2512,"fullonsms":2513,"clear":2514,"cheers":2515,"awaiting":2516,"##numbrwin":2517,"respond":2518,"ipnumbr":2519,"strong":2520,"medical":2521,"single":2522,"wednes":2523,"thru":2524,"training":2525,"matches":2526,"fault":2527,"includ":2528,"cinema":2529,"omg":2530,"interested":2531,"umma":2532,"photo":2533,"maxim":2534,"mistake":2535,"nigeria":2536,"##numbrppmxnumbr":2537,"style":2538,"cancel":2539,"registered":2540,"digital":2541,"gentle":2542,"tuesday":2543,"reference":2544,"movies":2545,"opinion":2546,"miracle":2547,"experience":2548,"fingers":2549,"future":2550,"pizza":2551,"##poboxnumbr":2552,"library":2553,"wednesday":2554,"aud":2555,"bot":2556,"breat":2557,"biz":2558,"bare":2559,"ct":2560,"cn":2561,"cc":2562,"cuz":2563,"cell":2564,"emb":2565,"fetch":2566,"gar":2567,"hon":2568,"izz":2569,"ign":2570,"kb":2571,"kill":2572,"kall":2573,"lm":2574,"lin":2575,"lim":2576,"lad":2577,"lond":2578,"mc":2579,"mil":2580,"mpnumbr":2581,"nit":2582,"nxt":2583,"naked":2584,"naught":2585,"oc":2586,"ori":2587,"pot":2588,"piss":2589,"past":2590,"page":2591,"rather":2592,"sight":2593,"sigh":2594,"tit":2595,"tir":2596,"tsc":2597,"var":2598,"vill":2599,"vers":2600,"wo":2601,"wun":2602,"walking":2603,"yun":2604,"yest":2605,"##surance":2606,"##tom":2607,"##ext":2608,"##nal":2609,"##don":2610,"##ding":2611,"##rd":2612,"##rw":2613,"##ric":2614,"##rite":2615,"##bin":2616,"##ule":2617,"##ured":2618,"##ume":2619,"##lish":2620,"##ml":2621,"##mad":2622,"##mins":2623,"##iec":2624,"##iest":2625,"##ipt":2626,"##iven":2627,"##ians":2628,"##hs":2629,"##hy":2630,"##cy":2631,"##com":2632,"##cri":2633,"##cial":2634,"##knumbr":2635,"##ja":2636,"##gar":2637,"##gis":2638,"##gas":2639,"##fo":2640,"##wk":2641,"##ware":2642,"##xh":2643,"##que":2644,"##mbers":2645,"##oup":2646,"numbrf":2647,"numbrxxxx":2648,"towards":2649,"##ater":2650,"##ana":2651,"ham":2652,"hai":2653,"##stem":2654,"insurance":2655,"##ots":2656,"##leep":2657,"members":2658,"onto":2659,"ish":2660,"weak":2661,"weather":2662,"fore":2663,"form":2664,"station":2665,"##iding":2666,"##idence":2667,"##ential":2668,"shd":2669,"share":2670,"shuhui":2671,"##oper":2672,"##riage":2673,"lif":2674,"##acter":2675,"##ada":2676,"tea":2677,"tear":2678,"tech":2679,"notice":2680,"chill":2681,"##thin":2682,"##vers":2683,"cold":2684,"##antly":2685,"##ility":2686,"present":2687,"alrite":2688,"##tery":2689,"worse":2690,"##cement":2691,"dey":2692,"sucks":2693,"click":2694,"##usive":2695,"spree":2696,"speed":2697,"##ific":2698,"repli":2699,"##ction":2700,"mag":2701,"maid":2702,"maxnumbr":2703,"imma":2704,"except":2705,"bucks":2706,"bugis":2707,"pleasure":2708,"awake":2709,"quality":2710,"##mmy":2711,"lead":2712,"learn":2713,"bro":2714,"brain":2715,"track":2716,"bloo":2717,"blank":2718,"##oydon":2719,"somenumbr":2720,"feb":2721,"showing":2722,"##ape":2723,"grand":2724,"accident":2725,"joke":2726,"players":2727,"host":2728,"holla":2729,"##sson":2730,"express":2731,"camp":2732,"persons":2733,"matter":2734,"married":2735,"marriage":2736,"become":2737,"character":2738,"costa":2739,"costmoneysymbnumbr":2740,"receipt":2741,"croydon":2742,"eatin":2743,"eating":2744,"prefer":2745,"planned":2746,"ahead":2747,"yoga":2748,"looks":2749,"happens":2750,"happening":2751,"paid":2752,"##iffs":2753,"hurry":2754,"##claim":2755,"darling":2756,"numbrwb":2757,"##kky":2758,"delivered":2759,"running":2760,"numbrgbp":2761,"##ensive":2762,"internet":2763,"recently":2764,"login":2765,"holding":2766,"respon":2767,"respect":2768,"tenerif":2769,"remain":2770,"discuss":2771,"instead":2772,"viol":2773,"vikky":2774,"kept":2775,"advance":2776,"murderer":2777,"murdered":2778,"midnight":2779,"battery":2780,"horny":2781,"transfer":2782,"relax":2783,"excuse":2784,"january":2785,"menu":2786,"following":2787,"omw":2788,"announ":2789,"favour":2790,"geeee":2791,"sense":2792,"country":2793,"model":2794,"torch":2795,"liked":2796,"##wnumbrwq":2797,"changed":2798,"celebr":2799,"irrit":2800,"waste":2801,"sknumbrxh":2802,"thnk":2803,"loyalty":2804,"arrive":2805,"appreciate":2806,"password":2807,"depends":2808,"definitely":2809,"damn":2810,"malaria":2811,"tuition":2812,"weird":2813,"behind":2814,"heavy":2815,"imagine":2816,"including":2817,"maximize":2818,"izzit":2819,"kallis":2820,"lmao":2821,"naughty":2822,"tenerife":2823,"ast":2824,"ach":2825,"aath":2826,"bf":2827,"bow":2828,"brow":2829,"bought":2830,"body":2831,"cu":2832,"cry":2833,"cart":2834,"city":2835,"du":2836,"dint":2837,"es":2838,"eer":2839,"eight":2840,"east":2841,"fb":2842,"fy":2843,"five":2844,"freak":2845,"gm":2846,"grow":2847,"gbp":2848,"green":2849,"hl":2850,"hv":2851,"hill":2852,"hrs":2853,"jam":2854,"jack":2855,"lone":2856,"lady":2857,"mn":2858,"main":2859,"nv":2860,"nor":2861,"nim":2862,"num":2863,"ow":2864,"pin":2865,"pil":2866,"pus":2867,"qatar":2868,"rom":2869,"sed":2870,"sli":2871,"tour":2872,"tty":2873,"vry":2874,"vary":2875,"verif":2876,"wet":2877,"wal":2878,"west":2879,"wnt":2880,"ym":2881,"yay":2882,"yij":2883,"zed":2884,"##app":2885,"##sn":2886,"##set":2887,"##tain":2888,"##ember":2889,"##den":2890,"##dle":2891,"##rnd":2892,"##oh":2893,"##oor":2894,"##oint":2895,"##bc":2896,"##band":2897,"##lace":2898,"##pm":2899,"##ii":2900,"##iot":2901,"##ipp":2902,"##ham":2903,"##ces":2904,"##ced":2905,"##call":2906,"##cade":2907,"##fing":2908,"##fort":2909,"##zes":2910,"##inner":2911,"thts":2912,"numbrs":2913,"numbrc":2914,"numbrk":2915,"numbrpp":2916,"numbrish":2917,"toclaim":2918,"##onic":2919,"##atre":2920,"##oring":2921,"##ords":2922,"##esus":2923,"theatre":2924,"##etition":2925,"##stop":2926,"##sters":2927,"inch":2928,"cafe":2929,"##ises":2930,"melle":2931,"##ute":2932,"isnt":2933,"review":2934,"gold":2935,"webs":2936,"ste":2937,"stom":2938,"stri":2939,"stra":2940,"stress":2941,"beer":2942,"belo":2943,"##chi":2944,"##illi":2945,"##ril":2946,"soft":2947,"cancer":2948,"lion":2949,"teasing":2950,"uraw":2951,"ate":2952,"atl":2953,"##the":2954,"##ther":2955,"##amps":2956,"##uns":2957,"fren":2958,"plenty":2959,"##ionate":2960,"willing":2961,"asleep":2962,"amaz":2963,"howz":2964,"prab":2965,"dem":2966,"delet":2967,"anybody":2968,"##ested":2969,"closed":2970,"spoke":2971,"texting":2972,"txtau":2973,"boo":2974,"boys":2975,"pos":2976,"wats":2977,"report":2978,"sory":2979,"arcade":2980,"bye":2981,"wond":2982,"daily":2983,"affect":2984,"##ults":2985,"envel":2986,"buff":2987,"##ects":2988,"pleased":2989,"askin":2990,"msgrcvd":2991,"usually":2992,"leg":2993,"brilli":2994,"tru":2995,"wherever":2996,"nights":2997,"babes":2998,"manage":2999,"moan":3000,"##lfrnd":3001,"works":3002,"##aged":3003,"##agenumbr":3004,"wind":3005,"contract":3006,"shouldn":3007,"serious":3008,"competition":3009,"role":3010,"drunk":3011,"appro":3012,"##ums":3013,"group":3014,"keeping":3015,"surely":3016,"joking":3017,"ended":3018,"flat":3019,"flower":3020,"hook":3021,"##ments":3022,"couldn":3023,"expensive":3024,"personal":3025,"fool":3026,"earth":3027,"girlfrnd":3028,"partner":3029,"marry":3030,"prem":3031,"sunny":3032,"bitch":3033,"ahmad":3034,"lookin":3035,"checked":3036,"law":3037,"added":3038,"problems":3039,"died":3040,"dark":3041,"numbrwin":3042,"attend":3043,"putting":3044,"avo":3045,"simply":3046,"indian":3047,"inviting":3048,"posted":3049,"setting":3050,"hunny":3051,"numbrgb":3052,"students":3053,"confidence":3054,"april":3055,"evng":3056,"tyler":3057,"holder":3058,"##optxt":3059,"aftr":3060,"normnumbrp":3061,"informed":3062,"listening":3063,"meds":3064,"childish":3065,"aiyo":3066,"aiyah":3067,"key":3068,"nature":3069,"raj":3070,"directly":3071,"##iction":3072,"system":3073,"relation":3074,"standard":3075,"loverboy":3076,"exciting":3077,"raining":3078,"##ney":3079,"local":3080,"screaming":3081,"handset":3082,"arrange":3083,"stockport":3084,"argum":3085,"budget":3086,"lnumbrr":3087,"turns":3088,"vodafone":3089,"consider":3090,"activate":3091,"fantasies":3092,"gives":3093,"exactly":3094,"wnumbrwq":3095,"regards":3096,"kano":3097,"armand":3098,"official":3099,"flights":3100,"created":3101,"kerala":3102,"lacs":3103,"sipix":3104,"tncs":3105,"tariffs":3106,"vomit":3107,"##numbrppmxnumbragenumbr":3108,"barely":3109,"embar":3110,"ladies":3111,"london":3112,"occ":3113,"tscs":3114,"version":3115,"replied":3116,"maxnumbrmins":3117,"campus":3118,"announcement":3119,"aathi":3120,"fyi":3121,"nimya":3122,"pilates":3123,"pussy":3124,"ttyl":3125,"yijue":3126,"website":3127,"straight":3128,"urawinner":3129,"amazing":3130,"txtauction":3131,"envelope":3132,"aun":3133,"aint":3134,"ba":3135,"bin":3136,"bright":3137,"buns":3138,"cbe":3139,"cds":3140,"dou":3141,"ded":3142,"dere":3143,"dry":3144,"due":3145,"dload":3146,"eff":3147,"ess":3148,"esc":3149,"ecnumbr":3150,"fish":3151,"fli":3152,"gard":3153,"hy":3154,"hes":3155,"hate":3156,"ja":3157,"jord":3158,"java":3159,"jesus":3160,"knumbr":3161,"lv":3162,"lab":3163,"lick":3164,"mas":3165,"mac":3166,"mite":3167,"mths":3168,"nw":3169,"nan":3170,"ol":3171,"ov":3172,"oz":3173,"pt":3174,"pu":3175,"pen":3176,"pig":3177,"pong":3178,"pred":3179,"pple":3180,"ppl":3181,"push":3182,"piec":3183,"rd":3184,"ren":3185,"rad":3186,"ride":3187,"rays":3188,"site":3189,"squ":3190,"tt":3191,"tk":3192,"tay":3193,"tis":3194,"unumbr":3195,"vip":3196,"vote":3197,"wis":3198,"xchat":3199,"ye":3200,"yan":3201,"##aid":3202,"##ex":3203,"##nw":3204,"##de":3205,"##di":3206,"##dom":3207,"##ring":3208,"##ror":3209,"##rol":3210,"##oc":3211,"##oz":3212,"##bt":3213,"##bi":3214,"##bab":3215,"##back":3216,"##lk":3217,"##par":3218,"##pod":3219,"##mnumbrw":3220,"##ying":3221,"##ik":3222,"##ired":3223,"##hl":3224,"##code":3225,"##ky":3226,"##jay":3227,"##vi":3228,"##gt":3229,"##go":3230,"##gam":3231,"##fnumbr":3232,"##fri":3233,"##wa":3234,"##xy":3235,"##ini":3236,"##ering":3237,"##erally":3238,"numbrq":3239,"numbrxnumbr":3240,"numbrget":3241,"numbroptout":3242,"numbrrd":3243,"##ona":3244,"##oned":3245,"##eng":3246,"##ores":3247,"##orrow":3248,"##anth":3249,"##anade":3250,"##omes":3251,"##ara":3252,"ant":3253,"##ets":3254,"##eth":3255,"##ether":3256,"##itch":3257,"##ston":3258,"insh":3259,"##oty":3260,"cabin":3261,"white":3262,"whether":3263,"##isf":3264,"ital":3265,"##numbrt":3266,"reco":3267,"goog":3268,"step":3269,"styl":3270,"bell":3271,"belly":3272,"begin":3273,"callers":3274,"##chin":3275,"sha":3276,"shirt":3277,"shipp":3278,"doc":3279,"dogg":3280,"social":3281,"living":3282,"necess":3283,"neigh":3284,"noline":3285,"note":3286,"chick":3287,"choice":3288,"##eek":3289,"##ural":3290,"atm":3291,"##ung":3292,"##ants":3293,"##antic":3294,"places":3295,"##irty":3296,"upgr":3297,"amt":3298,"among":3299,"amount":3300,"##ilos":3301,"proper":3302,"alert":3303,"dev":3304,"##ately":3305,"allow":3306,"allah":3307,"comnumbrwin":3308,"sum":3309,"suite":3310,"suff":3311,"sugg":3312,"clock":3313,"##uses":3314,"timing":3315,"spell":3316,"const":3317,"concent":3318,"convin":3319,"guide":3320,"boost":3321,"boston":3322,"booty":3323,"moby":3324,"smart":3325,"smiles":3326,"pock":3327,"sept":3328,"season":3329,"aren":3330,"latr":3331,"stops":3332,"stopped":3333,"waking":3334,"affa":3335,"##ular":3336,"##ulation":3337,"enem":3338,"tells":3339,"exha":3340,"build":3341,"unso":3342,"unable":3343,"##ield":3344,"asks":3345,"everybody":3346,"quit":3347,"quote":3348,"quoting":3349,"broth":3350,"broke":3351,"hopefully":3352,"ages":3353,"##agg":3354,"##ortunity":3355,"blo":3356,"wins":3357,"adult":3358,"##have":3359,"##assed":3360,"morn":3361,"themob":3362,"somethin":3363,"lux":3364,"wouldn":3365,"appoint":3366,"##ump":3367,"cars":3368,"urgnt":3369,"contacted":3370,"playing":3371,"december":3372,"hella":3373,"##ssss":3374,"math":3375,"scot":3376,"scared":3377,"satisf":3378,"peace":3379,"##ized":3380,"costs":3381,"results":3382,"minuts":3383,"cross":3384,"plane":3385,"prov":3386,"birds":3387,"yogas":3388,"looked":3389,"twice":3390,"xxxx":3391,"##anger":3392,"rooms":3393,"laid":3394,"videoph":3395,"numbrmins":3396,"numbrmrw":3397,"btw":3398,"diet":3399,"##scription":3400,"videochat":3401,"boring":3402,"##subscription":3403,"selection":3404,"sura":3405,"surfing":3406,"moms":3407,"sett":3408,"regret":3409,"callsmoneysymbnumbr":3410,"differ":3411,"interview":3412,"##ltim":3413,"totally":3414,"records":3415,"##box":3416,"##xxxxx":3417,"apolog":3418,"evry":3419,"optout":3420,"rentl":3421,"term":3422,"poboxnumbrwnumbrwq":3423,"english":3424,"drinks":3425,"dropped":3426,"vijay":3427,"searching":3428,"singles":3429,"##aaaa":3430,"advice":3431,"gals":3432,"horrible":3433,"revealed":3434,"selling":3435,"transaction":3436,"current":3437,"purch":3438,"inclusive":3439,"charges":3440,"subscription":3441,"fighting":3442,"##erental":3443,"possess":3444,"exams":3445,"salary":3446,"sonyeric":3447,"cheaper":3448,"interesting":3449,"returns":3450,"favor":3451,"ibh":3452,"##ginal":3453,"##ounge":3454,"numbrdays":3455,"intro":3456,"locations":3457,"grav":3458,"travel":3459,"arrested":3460,"photos":3461,"airport":3462,"euronumbr":3463,"mmmmm":3464,"numbryrs":3465,"##unde":3466,"common":3467,"connection":3468,"chinese":3469,"spook":3470,"expecting":3471,"fantasy":3472,"centre":3473,"obviously":3474,"thursday":3475,"opportunity":3476,"woman":3477,"##orgeous":3478,"dollars":3479,"cannot":3480,"conditions":3481,"basically":3482,"jiu":3483,"issues":3484,"pictures":3485,"roommate":3486,"polyphonic":3487,"ignore":3488,"linerental":3489,"original":3490,"pissed":3491,"sighs":3492,"village":3493,"techn":3494,"hostel":3495,"cartoon":3496,"eerie":3497,"lonely":3498,"nvm":3499,"romantic":3500,"prabha":3501,"brilliant":3502,"truly":3503,"argument":3504,"derek":3505,"ecnumbra":3506,"garden":3507,"jazz":3508,"jordan":3509,"pongal":3510,"##mnumbrwcnumbrnnumbrxx":3511,"##friend":3512,"numbrxnumbrp":3513,"italian":3514,"google":3515,"stylish":3516,"neighb":3517,"comnumbrwinnumbrppmxnumbragenumbr":3518,"suggest":3519,"exhaust":3520,"unsold":3521,"yogasana":3522,"videophones":3523,"sonyericsson":3524,"ay":3525,"ain":3526,"aer":3527,"aut":3528,"aunt":3529,"bay":3530,"bday":3531,"ball":3532,"bish":3533,"bah":3534,"bang":3535,"cat":3536,"cree":3537,"cream":3538,"cert":3539,"cwnumbrw":3540,"dh":3541,"dent":3542,"dub":3543,"div":3544,"danc":3545,"diction":3546,"dirty":3547,"elect":3548,"fly":3549,"fur":3550,"file":3551,"ful":3552,"four":3553,"fail":3554,"files":3555,"fift":3556,"fire":3557,"fml":3558,"gim":3559,"gently":3560,"gaut":3561,"gorgeous":3562,"hus":3563,"iz":3564,"iq":3565,"je":3566,"jess":3567,"jul":3568,"jour":3569,"june":3570,"jokes":3571,"jada":3572,"kar":3573,"kal":3574,"kus":3575,"kett":3576,"low":3577,"lang":3578,"mall":3579,"mass":3580,"mknumbr":3581,"nag":3582,"ore":3583,"pg":3584,"pod":3585,"pend":3586,"pun":3587,"pie":3588,"port":3589,"pages":3590,"porn":3591,"ppm":3592,"rc":3593,"rg":3594,"ron":3595,"rally":3596,"rum":3597,"rude":3598,"rush":3599,"si":3600,"sac":3601,"sore":3602,"sour":3603,"six":3604,"sens":3605,"santa":3606,"tb":3607,"tre":3608,"tal":3609,"tree":3610,"tab":3611,"ure":3612,"ultim":3613,"vir":3614,"wy":3615,"wick":3616,"wud":3617,"wcnumbrnnumbrxx":3618,"xnumbr":3619,"yer":3620,"yell":3621,"##airs":3622,"##sen":3623,"##sol":3624,"##smore":3625,"##tr":3626,"##eat":3627,"##ees":3628,"##eas":3629,"##nam":3630,"##ners":3631,"##do":3632,"##dress":3633,"##rone":3634,"##rate":3635,"##ros":3636,"##ruth":3637,"##ove":3638,"##old":3639,"##off":3640,"##bb":3641,"##bed":3642,"##but":3643,"##bnumbr":3644,"##bud":3645,"##bles":3646,"##berry":3647,"##ux":3648,"##uce":3649,"##uitions":3650,"##lor":3651,"##lif":3652,"##live":3653,"##part":3654,"##pap":3655,"##pose":3656,"##mp":3657,"##ming":3658,"##mit":3659,"##miss":3660,"##mail":3661,"##you":3662,"##iet":3663,"##ius":3664,"##hg":3665,"##hpnumbr":3666,"##jnumbr":3667,"##jith":3668,"##vt":3669,"##vis":3670,"##gme":3671,"##fc":3672,"##fw":3673,"##fic":3674,"##xjnumbr":3675,"##qp":3676,"##ining":3677,"##ination":3678,"##inder":3679,"##info":3680,"thes":3681,"three":3682,"thro":3683,"##erv":3684,"##ered":3685,"##ernal":3686,"numbrmorrow":3687,"numbrinfo":3688,"##lled":3689,"##ingly":3690,"##ann":3691,"##anna":3692,"##rey":3693,"##rew":3694,"theory":3695,"##ark":3696,"##arily":3697,"##arently":3698,"##edy":3699,"##edule":3700,"##aya":3701,"##eter":3702,"##ituitions":3703,"##sto":3704,"cast":3705,"capt":3706,"whom":3707,"##isc":3708,"##ising":3709,"mel":3710,"meal":3711,"oni":3712,"##numbrd":3713,"reas":3714,"releas":3715,"goss":3716,"govt":3717,"##icate":3718,"##icient":3719,"stick":3720,"beg":3721,"often":3722,"##asure":3723,"##idge":3724,"##char":3725,"##illa":3726,"shr":3727,"shor":3728,"shes":3729,"shld":3730,"shout":3731,"shame":3732,"shij":3733,"height":3734,"loss":3735,"##rie":3736,"lie":3737,"liver":3738,"lives":3739,"##acy":3740,"neck":3741,"oru":3742,"ornumbr":3743,"teeth":3744,"urn":3745,"url":3746,"cha":3747,"chur":3748,"chall":3749,"##eem":3750,"##ury":3751,"##thy":3752,"##ender":3753,"##ama":3754,"##ams":3755,"##amas":3756,"butt":3757,"comb":3758,"cooking":3759,"coins":3760,"##sex":3761,"##unel":3762,"fran":3763,"##ppy":3764,"ash":3765,"upto":3766,"upload":3767,"upset":3768,"##ilgme":3769,"proo":3770,"print":3771,"along":3772,"moneysymbnumbrper":3773,"freefone":3774,"##alla":3775,"##alling":3776,"outta":3777,"devel":3778,"anyways":3779,"comedy":3780,"fromm":3781,"sugar":3782,"abi":3783,"spk":3784,"spoken":3785,"##olo":3786,"wanting":3787,"texted":3788,"textpod":3789,"minmob":3790,"txtin":3791,"##ify":3792,"boat":3793,"smokes":3794,"saved":3795,"numbrper":3796,"replace":3797,"needed":3798,"seem":3799,"seemed":3800,"thangam":3801,"art":3802,"arms":3803,"arng":3804,"mummy":3805,"philos":3806,"happend":3807,"map":3808,"maga":3809,"masters":3810,"dare":3811,"afra":3812,"hip":3813,"unred":3814,"uncl":3815,"meetin":3816,"queen":3817,"##igent":3818,"leona":3819,"brit":3820,"brought":3821,"waitin":3822,"hasn":3823,"moji":3824,"blow":3825,"##ffff":3826,"contin":3827,"series":3828,"complain":3829,"roger":3830,"swnumbr":3831,"swim":3832,"##ears":3833,"##earch":3834,"##ooo":3835,"##list":3836,"feet":3837,"fever":3838,"febr":3839,"career":3840,"careful":3841,"carefully":3842,"sometime":3843,"lucoz":3844,"perf":3845,"perfect":3846,"appt":3847,"apparently":3848,"carry":3849,"nokian":3850,"grl":3851,"accom":3852,"accord":3853,"##ints":3854,"played":3855,"befor":3856,"decision":3857,"flow":3858,"dates":3859,"idk":3860,"idiot":3861,"##sco":3862,"sooner":3863,"explain":3864,"wkend":3865,"personality":3866,"netco":3867,"matured":3868,"action":3869,"##iza":3870,"becoz":3871,"paris":3872,"result":3873,"research":3874,"##mberg":3875,"receiv":3876,"receiving":3877,"cru":3878,"crick":3879,"schedule":3880,"yetunde":3881,"hols":3882,"##ahan":3883,"##iva":3884,"##ives":3885,"monthly":3886,"drivin":3887,"ansr":3888,"infernal":3889,"impro":3890,"impress":3891,"enjoyed":3892,"addict":3893,"##cost":3894,"largest":3895,"biggest":3896,"wrc":3897,"wrk":3898,"subs":3899,"skill":3900,"skilgme":3901,"bringing":3902,"born":3903,"easier":3904,"##ews":3905,"ela":3906,"ntwk":3907,"tax":3908,"taunt":3909,"frndship":3910,"kisses":3911,"indians":3912,"fuckin":3913,"hug":3914,"answers":3915,"passed":3916,"passionate":3917,"##elligent":3918,"meanwh":3919,"##taz":3920,"##ension":3921,"total":3922,"recd":3923,"record":3924,"##board":3925,"tonesnumbr":3926,"answering":3927,"tyrone":3928,"##play":3929,"##place":3930,"##ploy":3931,"##planade":3932,"credited":3933,"respons":3934,"tenants":3935,"takin":3936,"taken":3937,"mnumbruz":3938,"nyc":3939,"public":3940,"ordered":3941,"mumtaz":3942,"handle":3943,"instituitions":3944,"faster":3945,"##lines":3946,"tcs":3947,"wedding":3948,"aiya":3949,"aiyar":3950,"raise":3951,"tihs":3952,"assume":3953,"shortly":3954,"bathing":3955,"kidz":3956,"laughing":3957,"purity":3958,"purpose":3959,"##nnumbrqp":3960,"admin":3961,"wnumbrjhl":3962,"understanding":3963,"bcums":3964,"songs":3965,"nearly":3966,"teaches":3967,"followed":3968,"surprised":3969,"##awk":3970,"##hhhh":3971,"refused":3972,"skype":3973,"cleaning":3974,"ibiza":3975,"lecture":3976,"##mobile":3977,"intelligent":3978,"solve":3979,"spending":3980,"blackberry":3981,"fills":3982,"##llex":3983,"argue":3984,"unique":3985,"football":3986,"market":3987,"sarc":3988,"##rcvdnumbr":3989,"shoot":3990,"practice":3991,"spoil":3992,"activities":3993,"prepare":3994,"profit":3995,"celeb":3996,"benef":3997,"center":3998,"gaps":3999,"package":4000,"prescri":4001,"closer":4002,"sports":4003,"machan":4004,"wnumbrwx":4005,"subscriber":4006,"yuo":4007,"numbrae":4008,"numbrmoro":4009,"wearing":4010,"temple":4011,"mtmsgrcvdnumbr":4012,"harry":4013,"hanging":4014,"manda":4015,"namenumbr":4016,"wtf":4017,"losing":4018,"letters":4019,"##poboxnumbrhpnumbr":4020,"milk":4021,"title":4022,"##tomorrow":4023,"membership":4024,"magical":4025,"bloomberg":4026,"accidentally":4027,"preferably":4028,"response":4029,"celebrate":4030,"ache":4031,"bowl":4032,"esplanade":4033,"jamster":4034,"maintain":4035,"slipp":4036,"inches":4037,"belovd":4038,"atlanta":4039,"deleted":4040,"wonders":4041,"affection":4042,"msgrcvdhg":4043,"legal":4044,"window":4045,"settings":4046,"considering":4047,"embarassed":4048,"essential":4049,"escape":4050,"pull":4051,"renew":4052,"radio":4053,"tkts":4054,"numbrqxjnumbr":4055,"chicken":4056,"enemy":4057,"bloody":4058,"appointment":4059,"settled":4060,"purchase":4061,"gravity":4062,"technical":4063,"auto":4064,"bishan":4065,"bahamas":4066,"creep":4067,"cwnumbrwx":4068,"dictionary":4069,"further":4070,"fifteen":4071,"journey":4072,"kusruth":4073,"kettoda":4074,"tablet":4075,"wylie":4076,"##buddy":4077,"##life":4078,"throat":4079,"captain":4080,"reasons":4081,"released":4082,"church":4083,"minmobsmore":4084,"philosoph":4085,"afraid":4086,"unredeemed":4087,"uncles":4088,"february":4089,"lucozade":4090,"nokianumbr":4091,"netcollex":4092,"received":4093,"addicted":4094,"taunton":4095,"meanwhile":4096,"##poboxnumbrhpnumbrfl":4097,"kusruthi":4098,"ax":4099,"aah":4100,"aug":4101,"bm":4102,"bi":4103,"ban":4104,"bst":4105,"ble":4106,"bri":4107,"bite":4108,"bra":4109,"burn":4110,"batch":4111,"bread":4112,"cm":4113,"cit":4114,"cmnumbr":4115,"db":4116,"dot":4117,"dif":4118,"dick":4119,"dial":4120,"dorm":4121,"dign":4122,"dsn":4123,"ese":4124,"fit":4125,"fry":4126,"fake":4127,"fab":4128,"fif":4129,"fag":4130,"fear":4131,"fath":4132,"fave":4133,"field":4134,"ga":4135,"gp":4136,"gh":4137,"gnumbr":4138,"gam":4139,"gain":4140,"gary":4141,"gang":4142,"germ":4143,"given":4144,"hen":4145,"hub":4146,"hum":4147,"hint":4148,"iou":4149,"ike":4150,"js":4151,"jer":4152,"jok":4153,"jap":4154,"jason":4155,"james":4156,"jeal":4157,"ki":4158,"kay":4159,"kit":4160,"kad":4161,"lk":4162,"lay":4163,"lid":4164,"lag":4165,"lines":4166,"lsnumbr":4167,"lanumbr":4168,"lounge":4169,"mi":4170,"ment":4171,"mill":4172,"mix":4173,"miles":4174,"mention":4175,"nd":4176,"nb":4177,"non":4178,"nut":4179,"nic":4180,"nas":4181,"nur":4182,"nus":4183,"nap":4184,"nich":4185,"names":4186,"oic":4187,"okey":4188,"ps":4189,"psy":4190,"pout":4191,"pink":4192,"pence":4193,"path":4194,"rt":4195,"ry":4196,"rac":4197,"rob":4198,"rub":4199,"rail":4200,"rich":4201,"rang":4202,"sd":4203,"sry":4204,"sig":4205,"tur":4206,"tight":4207,"tess":4208,"tall":4209,"tul":4210,"tast":4211,"tlp":4212,"table":4213,"tape":4214,"ut":4215,"ubi":4216,"va":4217,"vod":4218,"vive":4219,"vett":4220,"vava":4221,"ws":4222,"wn":4223,"wu":4224,"wi":4225,"wate":4226,"woo":4227,"wip":4228,"wise":4229,"wild":4230,"xav":4231,"xuhui":4232,"yor":4233,"zo":4234,"##aur":4235,"##aff":4236,"##si":4237,"##sack":4238,"##td":4239,"##tv":4240,"##ted":4241,"##txt":4242,"##tec":4243,"##ey":4244,"##ems":4245,"##evr":4246,"##nr":4247,"##now":4248,"##dred":4249,"##rt":4250,"##rc":4251,"##rg":4252,"##res":4253,"##rom":4254,"##rst":4255,"##rnumbr":4256,"##rop":4257,"##rant":4258,"##ration":4259,"##ruct":4260,"##oen":4261,"##ole":4262,"##over":4263,"##bl":4264,"##bee":4265,"##bum":4266,"##break":4267,"##bby":4268,"##ught":4269,"##uine":4270,"##lnumbr":4271,"##pot":4272,"##pers":4273,"##pool":4274,"##mart":4275,"##mpt":4276,"##yar":4277,"##yond":4278,"##iing":4279,"##ias":4280,"##iod":4281,"##ium":4282,"##ht":4283,"##hmb":4284,"##hone":4285,"##hil":4286,"##hol":4287,"##core":4288,"##cert":4289,"##ket":4290,"##jor":4291,"##val":4292,"##vent":4293,"##vill":4294,"##vir":4295,"##via":4296,"##vary":4297,"##vious":4298,"##vali":4299,"##gi":4300,"##game":4301,"##gare":4302,"##gbp":4303,"##free":4304,"##fie":4305,"##ford":4306,"##with":4307,"##wys":4308,"##well":4309,"##wnumbrh":4310,"##wars":4311,"##zing":4312,"##mbr":4313,"##mbol":4314,"##ina":4315,"##iny":4316,"##inc":4317,"##inung":4318,"ths":4319,"thm":4320,"threat":4321,"##erg":4322,"##erve":4323,"numbre":4324,"numbrlp":4325,"numbruz":4326,"numbrja":4327,"toa":4328,"tom":4329,"tok":4330,"tog":4331,"toll":4332,"tomor":4333,"tome":4334,"tooth":4335,"tomar":4336,"##onw":4337,"##onment":4338,"##onths":4339,"##onnect":4340,"##ats":4341,"##enge":4342,"##enger":4343,"##ency":4344,"##orc":4345,"##anish":4346,"##oms":4347,"anth":4348,"##eds":4349,"##etic":4350,"##etime":4351,"##etbab":4352,"##itive":4353,"haiz":4354,"hallow":4355,"halla":4356,"##story":4357,"##stood":4358,"##stoptxt":4359,"ing":4360,"innumbr":4361,"inning":4362,"##ota":4363,"cap":4364,"calc":4365,"caught":4366,"##leys":4367,"##ison":4368,"memor":4369,"measure":4370,"onwards":4371,"itz":4372,"##utive":4373,"##numbranumbr":4374,"islands":4375,"iscom":4376,"rebo":4377,"rechar":4378,"goal":4379,"##icy":4380,"##icut":4381,"##icine":4382,"web":4383,"welp":4384,"weigh":4385,"force":4386,"storm":4387,"stars":4388,"stuck":4389,"stamps":4390,"staff":4391,"bein":4392,"beware":4393,"behave":4394,"beyond":4395,"##asam":4396,"callin":4397,"callback":4398,"callcost":4399,"##ids":4400,"##chless":4401,"##enter":4402,"##enture":4403,"##ima":4404,"shy":4405,"shot":4406,"shut":4407,"shir":4408,"shah":4409,"doors":4410,"docs":4411,"hel":4412,"heal":4413,"##keys":4414,"##operator":4415,"##rixnumbr":4416,"lib":4417,"lil":4418,"likes":4419,"##address":4420,"neg":4421,"org":4422,"tex":4423,"tele":4424,"telp":4425,"tease":4426,"cher":4427,"chart":4428,"chain":4429,"chos":4430,"chap":4431,"chasing":4432,"##eeee":4433,"##eechless":4434,"##uro":4435,"##amond":4436,"cock":4437,"##sey":4438,"##esssubscription":4439,"##ecutive":4440,"##unam":4441,"##ungu":4442,"fring":4443,"front":4444,"##pped":4445,"asp":4446,"americ":4447,"##ilty":4448,"prak":4449,"props":4450,"prosp":4451,"alive":4452,"alco":4453,"album":4454,"alfie":4455,"alwys":4456,"##tern":4457,"freezing":4458,"knack":4459,"whenevr":4460,"outs":4461,"outstand":4462,"death":4463,"anywhere":4464,"anythin":4465,"goodnite":4466,"knowing":4467,"##ables":4468,"sud":4469,"sug":4470,"supr":4471,"sumnumbr":4472,"abta":4473,"absol":4474,"cloth":4475,"clai":4476,"spir":4477,"spanish":4478,"speechless":4479,"##ols":4480,"##olt":4481,"likely":4482,"textcom":4483,"textoperator":4484,"concert":4485,"guilty":4486,"##nted":4487,"mini":4488,"minnam":4489,"##iforn":4490,"sender":4491,"booking":4492,"smoking":4493,"smash":4494,"##ainly":4495,"sauc":4496,"sachin":4497,"seat":4498,"seven":4499,"sorrow":4500,"sorting":4501,"argh":4502,"arun":4503,"arsen":4504,"phne":4505,"sheets":4506,"mak":4507,"male":4508,"major":4509,"homeown":4510,"##sgiving":4511,"dai":4512,"dave":4513,"history":4514,"newest":4515,"##ula":4516,"##ules":4517,"enuff":4518,"exe":4519,"exorc":4520,"executive":4521,"##aster":4522,"buzy":4523,"##ections":4524,"unn":4525,"unfort":4526,"missin":4527,"whos":4528,"msging":4529,"usc":4530,"##ours":4531,"##iah":4532,"messenger":4533,"##mmob":4534,"##mmma":4535,"dearer":4536,"dearnumbr":4537,"dearly":4538,"legs":4539,"bros":4540,"prizes":4541,"manees":4542,"moved":4543,"##udi":4544,"##epend":4545,"blur":4546,"blake":4547,"blame":4548,"blah":4549,"bloke":4550,"block":4551,"winning":4552,"adore":4553,"thanksgiving":4554,"veget":4555,"##ache":4556,"contents":4557,"##akes":4558,"##upur":4559,"feelin":4560,"roast":4561,"roads":4562,"rofl":4563,"swo":4564,"swthe":4565,"switch":4566,"drinking":4567,"morph":4568,"##oov":4569,"##likes":4570,"fell":4571,"fees":4572,"fema":4573,"lucy":4574,"mono":4575,"period":4576,"apps":4577,"caring":4578,"cares":4579,"carol":4580,"nokias":4581,"gran":4582,"gram":4583,"ground":4584,"sentence":4585,"senthil":4586,"uks":4587,"urgently":4588,"display":4589,"dislikes":4590,"##been":4591,"##inte":4592,"gudnite":4593,"flash":4594,"flaked":4595,"floor":4596,"hog":4597,"finishing":4598,"finishes":4599,"helpnumbr":4600,"gona":4601,"gonumbr":4602,"ideas":4603,"value":4604,"explic":4605,"lotr":4606,"##blefrnd":4607,"chatting":4608,"networ":4609,"lately":4610,"matrixnumbr":4611,"scr":4612,"score":4613,"scary":4614,"science":4615,"screen":4616,"havin":4617,"havnt":4618,"collecting":4619,"collected":4620,"partic":4621,"forgiven":4622,"margare":4623,"##izen":4624,"parking":4625,"parag":4626,"crab":4627,"crack":4628,"crash":4629,"cramps":4630,"eaten":4631,"prey":4632,"previously":4633,"suntec":4634,"##els":4635,"##elve":4636,"hahaha":4637,"reality":4638,"realize":4639,"realized":4640,"prove":4641,"prolly":4642,"progr":4643,"boye":4644,"payoh":4645,"birla":4646,"slap":4647,"bestnumbr":4648,"twelve":4649,"numbrstoptxt":4650,"##aoke":4651,"imposs":4652,"csbc":4653,"videos":4654,"addie":4655,"##rator":4656,"##rated":4657,"numbrmin":4658,"numbrmonths":4659,"sweetest":4660,"bigger":4661,"subpo":4662,"diamond":4663,"##love":4664,"##club":4665,"skip":4666,"numbrwu":4667,"numbrwp":4668,"numbrwks":4669,"attach":4670,"attract":4671,"books":4672,"avent":4673,"avatar":4674,"business":4675,"##kkum":4676,"remembered":4677,"invest":4678,"invite":4679,"invnted":4680,"postcode":4681,"ringtoneking":4682,"moments":4683,"settle":4684,"painful":4685,"runs":4686,"regular":4687,"supply":4688,"hundred":4689,"snake":4690,"numbrgo":4691,"numbrgift":4692,"student":4693,"##ltd":4694,"recent":4695,"headache":4696,"understood":4697,"cleared":4698,"evn":4699,"event":4700,"kindly":4701,"option":4702,"cheer":4703,"chechi":4704,"terrible":4705,"terror":4706,"tests":4707,"boxnumbrs":4708,"boxnumbrqu":4709,"boxnumbrnnumbrqp":4710,"validnumbrh":4711,"elsewhere":4712,"walked":4713,"ipad":4714,"##ucts":4715,"reminder":4716,"stranger":4717,"questioned":4718,"mnumbrs":4719,"disconnect":4720,"cornw":4721,"handed":4722,"hardcore":4723,"instantly":4724,"instruct":4725,"emailaddress":4726,"cardiff":4727,"normally":4728,"##prints":4729,"##full":4730,"incre":4731,"incident":4732,"prompt":4733,"promises":4734,"seconds":4735,"erm":4736,"medicine":4737,"tcr":4738,"touched":4739,"farm":4740,"keys":4741,"natal":4742,"natural":4743,"raji":4744,"warner":4745,"##from":4746,"advise":4747,"billed":4748,"courage":4749,"middle":4750,"##ibility":4751,"shortage":4752,"uncon":4753,"fancies":4754,"petrol":4755,"downloads":4756,"laughed":4757,"banks":4758,"distance":4759,"fair":4760,"films":4761,"filthy":4762,"symbol":4763,"include":4764,"standing":4765,"delay":4766,"mobilesdi":4767,"valuable":4768,"parked":4769,"confirmed":4770,"despar":4771,"edu":4772,"educ":4773,"fightng":4774,"jane":4775,"teacher":4776,"depress":4777,"eye":4778,"soup":4779,"sales":4780,"tsunam":4781,"##aweek":4782,"annoy":4783,"calicut":4784,"californ":4785,"praying":4786,"returned":4787,"bbd":4788,"madam":4789,"numbrtxt":4790,"sorted":4791,"countin":4792,"catching":4793,"grahmb":4794,"rule":4795,"trave":4796,"ummmmma":4797,"voicemail":4798,"supervis":4799,"ldnwnumbrh":4800,"cudd":4801,"cuddle":4802,"euro":4803,"falls":4804,"honeybee":4805,"mmmm":4806,"numbryears":4807,"tort":4808,"starwars":4809,"community":4810,"waheed":4811,"maxmoneysymbnumbr":4812,"univers":4813,"footprints":4814,"generally":4815,"genuine":4816,"china":4817,"changes":4818,"practic":4819,"quickly":4820,"profess":4821,"cutefrnd":4822,"requests":4823,"bags":4824,"##ermesssubscription":4825,"closnumbr":4826,"macho":4827,"blessings":4828,"regarding":4829,"subscribed":4830,"randomly":4831,"burger":4832,"greetings":4833,"icic":4834,"jstfrnd":4835,"popped":4836,"ranjith":4837,"women":4838,"yummy":4839,"##uuuu":4840,"numbrmorow":4841,"temp":4842,"mtmsgnumbr":4843,"eggs":4844,"july":4845,"juicy":4846,"loud":4847,"lousy":4848,"walls":4849,"wallpap":4850,"issue":4851,"loses":4852,"successful":4853,"successfully":4854,"dresser":4855,"picture":4856,"roommates":4857,"##numbrwinawk":4858,"responding":4859,"gentleman":4860,"audition":4861,"bottle":4862,"bottom":4863,"breath":4864,"garage":4865,"honest":4866,"potential":4867,"titles":4868,"tirunel":4869,"tirupur":4870,"various":4871,"##wksub":4872,"numbrxxxxxxx":4873,"numbrxxxxxxxxx":4874,"foreign":4875,"forevr":4876,"format":4877,"lifpart":4878,"lifetime":4879,"chillin":4880,"broad":4881,"deliveredtomorrow":4882,"responce":4883,"remains":4884,"violence":4885,"transfered":4886,"favourite":4887,"irritating":4888,"brown":4889,"gbpnumbr":4890,"mnth":4891,"north":4892,"verify":4893,"wales":4894,"walmart":4895,"stomach":4896,"stomps":4897,"strike":4898,"software":4899,"soryda":4900,"management":4901,"numbrwinaweek":4902,"occup":4903,"tscsnumbrwinawk":4904,"aunty":4905,"hesit":4906,"lvblefrnd":4907,"ptbo":4908,"predict":4909,"pieces":4910,"taylor":4911,"wisdom":4912,"yeh":4913,"##lkpoboxnumbrhpnumbrfl":4914,"anti":4915,"insha":4916,"recogn":4917,"shipping":4918,"doggy":4919,"upgrade":4920,"constantly":4921,"concentrate":4922,"pocketbab":4923,"affairs":4924,"building":4925,"brothas":4926,"##agged":4927,"luxury":4928,"scotland":4929,"satisfied":4930,"provided":4931,"apologise":4932,"possession":4933,"ibhltd":4934,"gardener":4935,"neighbour":4936,"exhausted":4937,"certainly":4938,"dubsack":4939,"gimme":4940,"gautham":4941,"husband":4942,"karaoke":4943,"pending":4944,"source":4945,"talent":4946,"##annel":4947,"gossip":4948,"shorter":4949,"shesil":4950,"shouted":4951,"shijas":4952,"liverpool":4953,"ornumbrstoptxt":4954,"challenge":4955,"proof":4956,"moneysymbnumbrperwksub":4957,"develop":4958,"numbrpercent":4959,"swimming":4960,"perform":4961,"accordingly":4962,"cruise":4963,"skillgame":4964,"slippers":4965,"tablets":4966,"minmobsmorelkpoboxnumbrhpnumbrfl":4967,"philosophy":4968,"august":4969,"bmw":4970,"bstfrnd":4971,"citizen":4972,"dificult":4973,"dignity":4974,"frying":4975,"fathima":4976,"germany":4977,"hubby":4978,"iouri":4979,"ikea":4980,"jealous":4981,"kadeem":4982,"lido":4983,"nurungu":4984,"nichols":4985,"pouts":4986,"railway":4987,"tessy":4988,"utter":4989,"vodka":4990,"vivek":4991,"vettam":4992,"wuld":4993,"xavier":4994,"##aurant":4995,"##ville":4996,"##vironment":4997,"##freefone":4998,"##inunginte":4999,"threats":5000,"tomarrow":5001,"halloween":5002,"innings":5003,"iscoming":5004,"storming":5005,"shirts":5006,"telphone":5007,"chosen":5008,"american":5009,"prospects":5010,"alcohol":5011,"knackered":5012,"outstanding":5013,"suprman":5014,"claire":5015,"textcomp":5016,"minnaminunginte":5017,"saucy":5018,"arsenal":5019,"homeowners":5020,"maneesha":5021,"vegetables":5022,"swtheart":5023,"morphine":5024,"female":5025,"explicit":5026,"networking":5027,"margaret":5028,"impossible":5029,"csbcmnumbrwcnumbrnnumbrxx":5030,"subpoly":5031,"validnumbrhrs":5032,"cornwall":5033,"instructions":5034,"mobilesdirect":5035,"california":5036,"grahmbell":5037,"ummmmmaah":5038,"supervisor":5039,"starwarsnumbr":5040,"university":5041,"wallpaper":5042,"lifpartnr":5043,"pocketbabe":5044,"aa":5045,"ak":5046,"aom":5047,"aust":5048,"apt":5049,"aven":5050,"airt":5051,"aka":5052,"bh":5053,"bk":5054,"bone":5055,"bree":5056,"band":5057,"bck":5058,"bul":5059,"bha":5060,"brist":5061,"biola":5062,"baaaa":5063,"cy":5064,"cer":5065,"cst":5066,"cnumbr":5067,"cld":5068,"csh":5069,"cme":5070,"cough":5071,"cous":5072,"dt":5073,"dumb":5074,"der":5075,"ding":5076,"dan":5077,"dom":5078,"das":5079,"dest":5080,"dab":5081,"dud":5082,"dough":5083,"dance":5084,"dime":5085,"dirt":5086,"durb":5087,"dizz":5088,"dhin":5089,"danger":5090,"ee":5091,"eb":5092,"ec":5093,"ell":5094,"ele":5095,"eek":5096,"eta":5097,"eps":5098,"eire":5099,"fg":5100,"fan":5101,"fow":5102,"fed":5103,"fle":5104,"fal":5105,"fond":5106,"furn":5107,"fails":5108,"fret":5109,"fffff":5110,"gv":5111,"gf":5112,"gin":5113,"gan":5114,"gre":5115,"gnt":5116,"gast":5117,"gving":5118,"gig":5119,"gail":5120,"gist":5121,"gib":5122,"gender":5123,"hs":5124,"han":5125,"hid":5126,"hpp":5127,"hide":5128,"hoo":5129,"hlp":5130,"hence":5131,"ik":5132,"iw":5133,"ias":5134,"jd":5135,"jon":5136,"jnumbr":5137,"jas":5138,"jia":5139,"jerry":5140,"jump":5141,"jsco":5142,"jolt":5143,"ka":5144,"kr":5145,"ko":5146,"kg":5147,"kz":5148,"kor":5149,"kent":5150,"kod":5151,"koth":5152,"kav":5153,"kapp":5154,"klnumbr":5155,"konw":5156,"kudi":5157,"ls":5158,"lc":5159,"ling":5160,"lst":5161,"lap":5162,"lower":5163,"lush":5164,"lays":5165,"lane":5166,"lfnumbr":5167,"leng":5168,"ms":5169,"mb":5170,"mj":5171,"mw":5172,"mou":5173,"mes":5174,"mut":5175,"mere":5176,"mth":5177,"mun":5178,"mok":5179,"mount":5180,"mits":5181,"ni":5182,"ned":5183,"nick":5184,"nast":5185,"nav":5186,"noun":5187,"nurs":5188,"nerv":5189,"nnumbrd":5190,"nalla":5191,"os":5192,"ou":5193,"oy":5194,"oi":5195,"oil":5196,"ooo":5197,"ots":5198,"ooooo":5199,"ola":5200,"odi":5201,"pim":5202,"pee":5203,"pand":5204,"pouch":5205,"puz":5206,"peak":5207,"pours":5208,"ri":5209,"rv":5210,"ray":5211,"rst":5212,"ris":5213,"rid":5214,"rod":5215,"ram":5216,"rice":5217,"ros":5218,"roy":5219,"range":5220,"rents":5221,"rhy":5222,"son":5223,"snumbr":5224,"sake":5225,"sack":5226,"sna":5227,"slp":5228,"sno":5229,"sary":5230,"srs":5231,"sank":5232,"sian":5233,"sib":5234,"size":5235,"siva":5236,"tnumbr":5237,"tac":5238,"tiss":5239,"tie":5240,"tact":5241,"tig":5242,"tap":5243,"tip":5244,"tms":5245,"tank":5246,"tlk":5247,"tahan":5248,"tension":5249,"uh":5250,"uw":5251,"ush":5252,"vu":5253,"vat":5254,"ven":5255,"vid":5256,"vth":5257,"vday":5258,"vag":5259,"vaa":5260,"vict":5261,"viva":5262,"wes":5263,"wld":5264,"wth":5265,"wide":5266,"wood":5267,"woken":5268,"wml":5269,"xin":5270,"xam":5271,"yal":5272,"yck":5273,"zind":5274,"##air":5275,"##aus":5276,"##aking":5277,"##aud":5278,"##aha":5279,"##aip":5280,"##sb":5281,"##sms":5282,"##te":5283,"##tow":5284,"##trs":5285,"##turn":5286,"##times":5287,"##text":5288,"##eg":5289,"##eone":5290,"##eath":5291,"##nn":5292,"##nu":5293,"##nl":5294,"##non":5295,"##nice":5296,"##nown":5297,"##nss":5298,"##nys":5299,"##news":5300,"##dd":5301,"##dc":5302,"##din":5303,"##dat":5304,"##dam":5305,"##dge":5306,"##dance":5307,"##draw":5308,"##ru":5309,"##rm":5310,"##rict":5311,"##ront":5312,"##of":5313,"##ox":5314,"##oat":5315,"##oes":5316,"##ook":5317,"##oices":5318,"##bing":5319,"##bre":5320,"##bit":5321,"##bage":5322,"##bra":5323,"##uv":5324,"##uit":5325,"##uot":5326,"##uage":5327,"##ugg":5328,"##ukk":5329,"##uvi":5330,"##low":5331,"##lac":5332,"##light":5333,"##long":5334,"##lub":5335,"##lnumbrp":5336,"##lane":5337,"##lots":5338,"##pd":5339,"##pin":5340,"##pes":5341,"##pal":5342,"##pri":5343,"##pite":5344,"##ples":5345,"##ponumbr":5346,"##mon":5347,"##mic":5348,"##mill":5349,"##mod":5350,"##mate":5351,"##mates":5352,"##iw":5353,"##ior":5354,"##iree":5355,"##ige":5356,"##iary":5357,"##iated":5358,"##ivers":5359,"##hi":5360,"##here":5361,"##hth":5362,"##hya":5363,"##ca":5364,"##cin":5365,"##cing":5366,"##cay":5367,"##cle":5368,"##could":5369,"##card":5370,"##cmnumbr":5371,"##ckey":5372,"##kg":5373,"##ker":5374,"##known":5375,"##ju":5376,"##jen":5377,"##jan":5378,"##just":5379,"##jits":5380,"##jib":5381,"##jahan":5382,"##vg":5383,"##vet":5384,"##vable":5385,"##vision":5386,"##viec":5387,"##gor":5388,"##gun":5389,"##gnumbrp":5390,"##fre":5391,"##fly":5392,"##fice":5393,"##found":5394,"##fnumbrp":5395,"##wy":5396,"##wear":5397,"##wary":5398,"##wood":5399,"##wali":5400,"##wnumbrt":5401,"##wives":5402,"##zi":5403,"##zles":5404,"##ziest":5405,"##zhth":5406,"##xn":5407,"##xah":5408,"##mbnumbr":5409,"##inade":5410,"##umbling":5411,"##oud":5412,"##oul":5413,"thy":5414,"thx":5415,"thin":5416,"ther":5417,"thot":5418,"thous":5419,"thread":5420,"thgt":5421,"threw":5422,"##erable":5423,"##ercial":5424,"numbrl":5425,"numbrz":5426,"numbrld":5427,"numbrend":5428,"numbrge":5429,"numbrxx":5430,"numbrss":5431,"numbrrc":5432,"numbrover":5433,"toot":5434,"tool":5435,"tosh":5436,"toler":5437,"youre":5438,"young":5439,"##oni":5440,"##oning":5441,"##onven":5442,"##onaut":5443,"##ato":5444,"##atic":5445,"##atter":5446,"##atus":5447,"##atme":5448,"##atum":5449,"##atics":5450,"##atient":5451,"##atives":5452,"##ench":5453,"##ences":5454,"##ora":5455,"##ored":5456,"##orce":5457,"##orsg":5458,"##orating":5459,"##anese":5460,"##essex":5461,"##rep":5462,"##reme":5463,"##omorsg":5464,"##arc":5465,"##aring":5466,"##arter":5467,"##arrow":5468,"##argg":5469,"##arfull":5470,"anj":5471,"anumbr":5472,"anot":5473,"anim":5474,"anna":5475,"##edom":5476,"##ednumbr":5477,"##edia":5478,"##edint":5479,"##ayin":5480,"##ayment":5481,"##ayuth":5482,"##ethe":5483,"##itt":5484,"##itis":5485,"##itic":5486,"##iture":5487,"##itude":5488,"##itinade":5489,"habit":5490,"##stery":5491,"##stini":5492,"##stairs":5493,"inr":5494,"inno":5495,"##otion":5496,"##otect":5497,"cas":5498,"cave":5499,"capp":5500,"caus":5501,"cared":5502,"cali":5503,"whn":5504,"whr":5505,"##lebe":5506,"##isis":5507,"##isation":5508,"##isions":5509,"##isinc":5510,"mei":5511,"meat":5512,"meow":5513,"melt":5514,"mega":5515,"onion":5516,"itwh":5517,"items":5518,"itcould":5519,"##utly":5520,"##utra":5521,"andros":5522,"##numbrth":5523,"island":5524,"rever":5525,"reck":5526,"reass":5527,"recess":5528,"reaction":5529,"revision":5530,"goals":5531,"##ication":5532,"##icated":5533,"##icsson":5534,"##iciary":5535,"wee":5536,"weas":5537,"forum":5538,"forms":5539,"forums":5540,"stone":5541,"stere":5542,"stones":5543,"stret":5544,"stamp":5545,"steal":5546,"stores":5547,"status":5548,"bear":5549,"begging":5550,"bears":5551,"belive":5552,"belong":5553,"ofice":5554,"ofmoneysymbnumbr":5555,"mystery":5556,"##ala":5557,"##alan":5558,"##alam":5559,"##asu":5560,"##asm":5561,"##ases":5562,"##assy":5563,"##asota":5564,"calld":5565,"callfreefone":5566,"##idal":5567,"##idual":5568,"##cha":5569,"##chess":5570,"##entry":5571,"##iment":5572,"##imum":5573,"##illed":5574,"shu":5575,"shan":5576,"shore":5577,"shud":5578,"ship":5579,"shock":5580,"shamp":5581,"shared":5582,"shining":5583,"shagged":5584,"sharing":5585,"dokey":5586,"dobby":5587,"hex":5588,"held":5589,"heater":5590,"##kempt":5591,"lock":5592,"loos":5593,"loans":5594,"loose":5595,"loxah":5596,"##opose":5597,"##oplane":5598,"##rib":5599,"##rious":5600,"##rific":5601,"##rivia":5602,"##rifice":5603,"##erem":5604,"soo":5605,"sooooo":5606,"soiree":5607,"canal":5608,"canary":5609,"canada":5610,"lip":5611,"lies":5612,"lily":5613,"lived":5614,"lions":5615,"##aced":5616,"##acir":5617,"##acking":5618,"##acula":5619,"##acomorsg":5620,"##adu":5621,"##aders":5622,"##adays":5623,"neft":5624,"neither":5625,"nos":5626,"nooooo":5627,"orang":5628,"nowadays":5629,"tee":5630,"tears":5631,"notxt":5632,"nothin":5633,"##odisinc":5634,"chest":5635,"chip":5636,"chanc":5637,"champ":5638,"chuck":5639,"chase":5640,"choc":5641,"channel":5642,"##eell":5643,"getstop":5644,"##urity":5645,"ath":5646,"##thr":5647,"##thm":5648,"##then":5649,"##this":5650,"##though":5651,"##enders":5652,"##amed":5653,"##ampt":5654,"##verb":5655,"##very":5656,"##veral":5657,"coin":5658,"coat":5659,"coast":5660,"cochin":5661,"##seer":5662,"##sems":5663,"##ightly":5664,"##essarily":5665,"##ecessarily":5666,"##unna":5667,"##unga":5668,"##unately":5669,"##oneysymb":5670,"frank":5671,"frog":5672,"fresh":5673,"fraud":5674,"plm":5675,"plumb":5676,"plaz":5677,"##irting":5678,"asus":5679,"upnumbr":5680,"updnumbr":5681,"upstairs":5682,"amy":5683,"amma":5684,"amoneysymbnumbr":5685,"amused":5686,"##ila":5687,"##ili":5688,"##ilon":5689,"##ilight":5690,"##ilities":5691,"howard":5692,"pras":5693,"prod":5694,"pride":5695,"prisc":5696,"protect":5697,"propose":5698,"ali":5699,"algar":5700,"alaip":5701,"although":5702,"lttrs":5703,"donate":5704,"donno":5705,"worst":5706,"moneysymbnumbrp":5707,"moneysymbnumbrk":5708,"knock":5709,"##gement":5710,"outf":5711,"deg":5712,"deus":5713,"defe":5714,"deera":5715,"dehy":5716,"comfort":5717,"##eaking":5718,"goodo":5719,"goodnoon":5720,"goodfriend":5721,"##estar":5722,"##abe":5723,"##about":5724,"gotten":5725,"sue":5726,"sux":5727,"suck":5728,"suzy":5729,"suits":5730,"abj":5731,"ability":5732,"aburo":5733,"clar":5734,"clark":5735,"##usion":5736,"##ileo":5737,"spr":5738,"spin":5739,"spot":5740,"spile":5741,"spare":5742,"splle":5743,"spider":5744,"spring":5745,"spark":5746,"sptv":5747,"speaking":5748,"##olate":5749,"##olved":5750,"textbuddy":5751,"conver":5752,"conso":5753,"concer":5754,"guid":5755,"##andcs":5756,"minor":5757,"minmore":5758,"minimum":5759,"loveme":5760,"lovejen":5761,"txtnumbr":5762,"txtno":5763,"txtstop":5764,"txttow":5765,"sends":5766,"mobno":5767,"somewh":5768,"smith":5769,"smok":5770,"smell":5771,"smsco":5772,"smeone":5773,"poo":5774,"pole":5775,"poop":5776,"pool":5777,"poem":5778,"poker":5779,"##ains":5780,"##ishi":5781,"wating":5782,"numbrpnumbr":5783,"repeat":5784,"repair":5785,"seh":5786,"seeds":5787,"several":5788,"finance":5789,"arent":5790,"arab":5791,"arts":5792,"muah":5793,"mult":5794,"php":5795,"phoned":5796,"phoen":5797,"happily":5798,"shelf":5799,"sheff":5800,"stopnumbr":5801,"wave":5802,"waves":5803,"maang":5804,"##ckt":5805,"tons":5806,"afric":5807,"neway":5808,"##ulate":5809,"environment":5810,"##shole":5811,"telly":5812,"exmp":5813,"exeter":5814,"offc":5815,"bull":5816,"##ection":5817,"aww":5818,"unha":5819,"unbe":5820,"unint":5821,"unem":5822,"unbreak":5823,"unknown":5824,"unkempt":5825,"##iez":5826,"##ieve":5827,"whose":5828,"herself":5829,"msgnumbrp":5830,"usb":5831,"##ouring":5832,"everyday":5833,"everywhere":5834,"messy":5835,"messag":5836,"messaged":5837,"##osk":5838,"meets":5839,"ques":5840,"quiet":5841,"##moro":5842,"##igate":5843,"bray":5844,"broken":5845,"bruce":5846,"bruv":5847,"trade":5848,"truff":5849,"truck":5850,"waited":5851,"prior":5852,"babys":5853,"babies":5854,"managed":5855,"greatest":5856,"moving":5857,"moves":5858,"mojib":5859,"aco":5860,"acade":5861,"aclnumbrp":5862,"agree":5863,"agalla":5864,"claims":5865,"##orte":5866,"bluff":5867,"blind":5868,"blond":5869,"blog":5870,"ads":5871,"adam":5872,"adoring":5873,"##few":5874,"vel":5875,"vegas":5876,"vewy":5877,"##ffic":5878,"tooo":5879,"morefr":5880,"wannumbr":5881,"control":5882,"##aky":5883,"##uplt":5884,"##hah":5885,"##haved":5886,"##haps":5887,"serving":5888,"##redible":5889,"compan":5890,"compare":5891,"comprom":5892,"somtimes":5893,"probs":5894,"probl":5895,"rocks":5896,"sway":5897,"swiss":5898,"swatch":5899,"dram":5900,"drms":5901,"drove":5902,"drpd":5903,"dracula":5904,"##xnumbressex":5905,"rights":5906,"rightly":5907,"cashto":5908,"cashbin":5909,"##lious":5910,"careers":5911,"sleepy":5912,"sleepin":5913,"sleepwell":5914,"fujits":5915,"monkey":5916,"monkeys":5917,"percent":5918,"permiss":5919,"perhaps":5920,"woulda":5921,"applic":5922,"applebe":5923,"##uman":5924,"pickle":5925,"##aps":5926,"##aping":5927,"##ists":5928,"##istrator":5929,"grace":5930,"groov":5931,"keeps":5932,"##nog":5933,"wishin":5934,"contacts":5935,"jolly":5936,"jogging":5937,"joanna":5938,"overd":5939,"disast":5940,"discl":5941,"disapp":5942,"##bey":5943,"##behaved":5944,"deciding":5945,"decisions":5946,"##ichturn":5947,"specific":5948,"flame":5949,"flirting":5950,"flaky":5951,"holy":5952,"hockey":5953,"helloooo":5954,"helpline":5955,"datz":5956,"idew":5957,"ideal":5958,"explos":5959,"expired":5960,"lotta":5961,"wks":5962,"wkg":5963,"wkent":5964,"foley":5965,"customers":5966,"maturity":5967,"scen":5968,"scra":5969,"scrat":5970,"scots":5971,"scoring":5972,"scores":5973,"scold":5974,"placement":5975,"tonights":5976,"earn":5977,"acting":5978,"actor":5979,"acted":5980,"active":5981,"actual":5982,"partners":5983,"sathya":5984,"wifi":5985,"landlines":5986,"##inds":5987,"becomes":5988,"becaus":5989,"shoppin":5990,"charles":5991,"costing":5992,"parent":5993,"parco":5994,"reser":5995,"resub":5996,"resume":5997,"##enumbrday":5998,"##enumbrgbp":5999,"crore":6000,"cruc":6001,"crisis":6002,"previous":6003,"sunlight":6004,"##eling":6005,"planet":6006,"##ividual":6007,"realise":6008,"proverb":6009,"boyfriend":6010,"payee":6011,"payment":6012,"##moviec":6013,"ahhh":6014,"bird":6015,"employ":6016,"emerg":6017,"slo":6018,"slice":6019,"slide":6020,"slots":6021,"slightly":6022,"useful":6023,"hearts":6024,"secs":6025,"##roit":6026,"##road":6027,"##roach":6028,"##roenter":6029,"lookatme":6030,"driver":6031,"funk":6032,"funeral":6033,"funky":6034,"twenty":6035,"twilight":6036,"talks":6037,"numbrstop":6038,"##ionsms":6039,"dining":6040,"trips":6041,"##gger":6042,"thoughts":6043,"gods":6044,"classes":6045,"xxxxx":6046,"xxxxxxx":6047,"xxxmobile":6048,"infections":6049,"infront":6050,"impatient":6051,"housewives":6052,"lamb":6053,"laund":6054,"pale":6055,"enjoyin":6056,"addams":6057,"illness":6058,"jobs":6059,"numbrmiles":6060,"numbrmarrow":6061,"sweets":6062,"sweetie":6063,"sweethe":6064,"bedrm":6065,"wrote":6066,"wrench":6067,"wrnog":6068,"subsnumbr":6069,"submit":6070,"dipped":6071,"diwali":6072,"hurting":6073,"hurried":6074,"guessing":6075,"accounts":6076,"entire":6077,"##clusive":6078,"##cltd":6079,"shitin":6080,"shitload":6081,"##ematics":6082,"luvs":6083,"birthdate":6084,"numbrwt":6085,"numbrwax":6086,"worlds":6087,"receivea":6088,"##letter":6089,"##letext":6090,"remembr":6091,"polyh":6092,"borin":6093,"borrow":6094,"denis":6095,"easily":6096,"puttin":6097,"stays":6098,"stayin":6099,"stayed":6100,"prince":6101,"elab":6102,"simpl":6103,"##onsider":6104,"##andsaid":6105,"joining":6106,"buses":6107,"##nyt":6108,"indeed":6109,"index":6110,"indicate":6111,"indyar":6112,"independ":6113,"individual":6114,"fucked":6115,"surr":6116,"survey":6117,"invaders":6118,"posts":6119,"postcard":6120,"huge":6121,"hugs":6122,"literally":6123,"##phs":6124,"##quiz":6125,"numbrhr":6126,"numbrhl":6127,"forgotten":6128,"crap":6129,"craziest":6130,"detail":6131,"determ":6132,"detroit":6133,"painting":6134,"suppli":6135,"suppose":6136,"undrst":6137,"numbrgot":6138,"numbrgthr":6139,"##ensus":6140,"interfl":6141,"mails":6142,"mailbox":6143,"musthu":6144,"readers":6145,"color":6146,"conform":6147,"confused":6148,"confuses":6149,"sitll":6150,"##boxnumbressex":6151,"##lievable":6152,"heads":6153,"headin":6154,"heading":6155,"##xxxxxxx":6156,"mostly":6157,"evenings":6158,"networks":6159,"tmrw":6160,"underwear":6161,"apo":6162,"apart":6163,"aproach":6164,"cutting":6165,"sinco":6166,"untamed":6167,"##ocks":6168,"##perate":6169,"##iyag":6170,"schools":6171,"answered":6172,"clever":6173,"evr":6174,"evrey":6175,"##ancial":6176,"cheat":6177,"cheese":6178,"cheating":6179,"entrynumbr":6180,"gifted":6181,"reduce":6182,"terrific":6183,"testing":6184,"entertain":6185,"poboxnumbrnnumbr":6186,"poboxnumbrwnumbrt":6187,"colours":6188,"strange":6189,"clubnumbr":6190,"engin":6191,"drinkin":6192,"mnumbrbp":6193,"mnumbrxy":6194,"nydc":6195,"##rene":6196,"##ugu":6197,"topic":6198,"beauty":6199,"discreet":6200,"dateboxnumbressex":6201,"eveb":6202,"hardly":6203,"##atchee":6204,"install":6205,"installing":6206,"opening":6207,"curry":6208,"fastest":6209,"pmoneysymbnumbr":6210,"vibr":6211,"visionsms":6212,"inconven":6213,"incredible":6214,"inconsider":6215,"promo":6216,"grnumbrpri":6217,"err":6218,"ericsson":6219,"hopes":6220,"hoped":6221,"singing":6222,"trains":6223,"privacy":6224,"completed":6225,"picsfre":6226,"kegger":6227,"natnumbr":6228,"raed":6229,"rael":6230,"retrie":6231,"tiwary":6232,"treated":6233,"warning":6234,"warrant":6235,"##numbrhb":6236,"adventure":6237,"forgets":6238,"bills":6239,"billion":6240,"court":6241,"galileo":6242,"mids":6243,"##iba":6244,"##ibank":6245,"##corn":6246,"lovingly":6247,"whatsup":6248,"secretly":6249,"secretary":6250,"battle":6251,"horo":6252,"kidding":6253,"papers":6254,"##speak":6255,"sells":6256,"transfr":6257,"transport":6258,"downloaded":6259,"snowman":6260,"distract":6261,"faith":6262,"jaya":6263,"motiv":6264,"purse":6265,"restock":6266,"restaurant":6267,"restrict":6268,"relatives":6269,"lovers":6270,"telugu":6271,"delhi":6272,"mobilesvary":6273,"excuses":6274,"admit":6275,"subscript":6276,"bcmnumbr":6277,"bcmnumbrwcnumbrnnumbrxx":6278,"desert":6279,"desires":6280,"descri":6281,"despite":6282,"desperate":6283,"edge":6284,"edison":6285,"fights":6286,"george":6287,"mtalk":6288,"##huag":6289,"reasonable":6290,"welcomes":6291,"teaching":6292,"depos":6293,"department":6294,"semi":6295,"mahal":6296,"base":6297,"basket":6298,"polo":6299,"politic":6300,"soul":6301,"salon":6302,"salam":6303,"silver":6304,"silence":6305,"silently":6306,"tsandcs":6307,"yarasu":6308,"annie":6309,"annivers":6310,"calm":6311,"refund":6312,"refilled":6313,"removed":6314,"removal":6315,"require":6316,"skyped":6317,"correction":6318,"ibn":6319,"madnumbr":6320,"owns":6321,"##aikkum":6322,"##moby":6323,"##mobsems":6324,"location":6325,"solved":6326,"dealer":6327,"dealing":6328,"screamed":6329,"difficulties":6330,"petey":6331,"confirmd":6332,"coping":6333,"deepak":6334,"figures":6335,"grave":6336,"kicks":6337,"kickoff":6338,"ruin":6339,"ruining":6340,"trav":6341,"traffic":6342,"##daq":6343,"##ettan":6344,"rewarding":6345,"superb":6346,"superior":6347,"selfish":6348,"paperwork":6349,"europe":6350,"eurodisinc":6351,"filling":6352,"filled":6353,"falling":6354,"gaytext":6355,"module":6356,"modules":6357,"nahi":6358,"randy":6359,"signific":6360,"numbryr":6361,"staring":6362,"commercial":6363,"connections":6364,"waht":6365,"disturbing":6366,"hospitals":6367,"cdgt":6368,"genius":6369,"lnumbrtr":6370,"miserable":6371,"misbehaved":6372,"mistakes":6373,"sarasota":6374,"##alyam":6375,"##uccin":6376,"shoes":6377,"shoving":6378,"shocking":6379,"cancelled":6380,"covers":6381,"practical":6382,"prepared":6383,"prepaid":6384,"prepayment":6385,"beneath":6386,"panic":6387,"packs":6388,"##kslp":6389,"closes":6390,"splash":6391,"wasted":6392,"moviet":6393,"blessing":6394,"blessed":6395,"opinions":6396,"fixedline":6397,"subscribenumbrgbp":6398,"bids":6399,"burning":6400,"lyk":6401,"lyf":6402,"lyfu":6403,"popcorn":6404,"toughest":6405,"##lsuplt":6406,"numbraj":6407,"numbrmorro":6408,"onumbrfw":6409,"dollar":6410,"##ologist":6411,"condition":6412,"conducts":6413,"officially":6414,"appreciated":6415,"crnumbrbt":6416,"hotels":6417,"passwords":6418,"reminding":6419,"freedom":6420,"freenumbrday":6421,"hrishi":6422,"juan":6423,"jiayin":6424,"jenny":6425,"keralacir":6426,"mandan":6427,"named":6428,"patty":6429,"pattern":6430,"tnc":6431,"vomiting":6432,"##mark":6433,"cooked":6434,"cookies":6435,"brandy":6436,"dressed":6437,"processed":6438,"clearing":6439,"clearly":6440,"##poboxnumbrponumbr":6441,"audrey":6442,"breathe":6443,"ctxt":6444,"ctter":6445,"cnn":6446,"garbage":6447,"kills":6448,"killing":6449,"killed":6450,"limiting":6451,"mca":6452,"mcat":6453,"mila":6454,"nitros":6455,"orig":6456,"potter":6457,"potato":6458,"woot":6459,"yunny":6460,"##rwnumbr":6461,"##ricity":6462,"##knumbrch":6463,"numbrfil":6464,"numbrfree":6465,"numbrfind":6466,"hamster":6467,"weakness":6468,"speeding":6469,"speedchat":6470,"expression":6471,"expressoff":6472,"receipts":6473,"darlings":6474,"respectful":6475,"discussed":6476,"violet":6477,"violated":6478,"geeeee":6479,"celebration":6480,"irritates":6481,"weirdest":6482,"astr":6483,"brows":6484,"curious":6485,"duchess":6486,"eighth":6487,"easter":6488,"eastenders":6489,"grown":6490,"growing":6491,"jacket":6492,"jackpot":6493,"mnths":6494,"slip":6495,"verified":6496,"westlife":6497,"##apply":6498,"##iiii":6499,"numbrppw":6500,"numbrppermesssubscription":6501,"goldvi":6502,"steve":6503,"steam":6504,"beloved":6505,"lionp":6506,"lionm":6507,"atlast":6508,"demand":6509,"delete":6510,"position":6511,"buffet":6512,"drunken":6513,"approx":6514,"approach":6515,"premier":6516,"premium":6517,"numbrwinnumbrppmxnumbr":6518,"avoid":6519,"avoiding":6520,"aunts":6521,"doubt":6522,"dedicate":6523,"dedicated":6524,"effect":6525,"effects":6526,"flip":6527,"flies":6528,"hyde":6529,"licks":6530,"ovulation":6531,"ptnumbr":6532,"penis":6533,"pushes":6534,"piece":6535,"tayseer":6536,"wiskey":6537,"##nwnumbranumbr":6538,"##delious":6539,"##babes":6540,"inshah":6541,"recovery":6542,"shipped":6543,"necessary":6544,"necessarily":6545,"amongst":6546,"properly":6547,"property":6548,"devouring":6549,"allowed":6550,"sumthin":6551,"sufficient":6552,"constant":6553,"convinced":6554,"convincing":6555,"bootydelious":6556,"stopsms":6557,"affair":6558,"mornin":6559,"mathematics":6560,"scotch":6561,"satisfy":6562,"peaceful":6563,"difference":6564,"evrydy":6565,"favorite":6566,"mmmmmm":6567,"ayn":6568,"aeronaut":6569,"aeroplane":6570,"dhoni":6571,"division":6572,"divorce":6573,"dancing":6574,"electricity":6575,"failed":6576,"jeans":6577,"julian":6578,"langport":6579,"language":6580,"massive":6581,"nagar":6582,"oreo":6583,"punish":6584,"rcv":6585,"rgds":6586,"rumour":6587,"sacrifice":6588,"sensitive":6589,"ultimatum":6590,"virg":6591,"virgin":6592,"wicklow":6593,"yelling":6594,"yellow":6595,"##uxe":6596,"thesis":6597,"castor":6598,"##iscount":6599,"sticky":6600,"shracomorsg":6601,"necklace":6602,"combine":6603,"ashley":6604,"printed":6605,"replacement":6606,"british":6607,"britney":6608,"continue":6609,"complaint":6610,"swnumbrss":6611,"accomod":6612,"accommod":6613,"flowing":6614,"cricketer":6615,"improve":6616,"improved":6617,"elaine":6618,"taxi":6619,"##boarding":6620,"tonesnumbru":6621,"tonesnumbryou":6622,"##ployed":6623,"responsibility":6624,"administrator":6625,"sarcastic":6626,"sarcasm":6627,"spoiled":6628,"benefits":6629,"beneficiary":6630,"prescription":6631,"windows":6632,"renewal":6633,"creepy":6634,"banned":6635,"bleh":6636,"brief":6637,"brah":6638,"burns":6639,"dbuk":6640,"faggy":6641,"gpu":6642,"ghost":6643,"gnumbrga":6644,"gamestar":6645,"henry":6646,"jsut":6647,"jokin":6648,"japanese":6649,"kiosk":6650,"mental":6651,"nuther":6652,"nasdaq":6653,"psych":6654,"ryan":6655,"racing":6656,"signing":6657,"turning":6658,"tulip":6659,"taste":6660,"vale":6661,"wiht":6662,"watever":6663,"wipro":6664,"zoe":6665,"numbreva":6666,"tomorro":6667,"tomeandsaid":6668,"anthony":6669,"hallaq":6670,"capital":6671,"calculation":6672,"reboot":6673,"recharge":6674,"shahjahan":6675,"helen":6676,"organ":6677,"telephone":6678,"cherish":6679,"fringe":6680,"prakasam":6681,"propsd":6682,"sudden":6683,"absolutly":6684,"clothes":6685,"spirit":6686,"smashed":6687,"makin":6688,"exorcist":6689,"unnecessarily":6690,"unfortunately":6691,"swoop":6692,"caroline":6693,"granite":6694,"scrounge":6695,"particular":6696,"paragon":6697,"program":6698,"diamonds":6699,"attached":6700,"terrorist":6701,"boxnumbrsknumbrch":6702,"increments":6703,"prompts":6704,"natalja":6705,"unconsc":6706,"desparate":6707,"educational":6708,"depressed":6709,"tsunamis":6710,"annoying":6711,"cuddling":6712,"tortilla":6713,"practicing":6714,"professors":6715,"icicibank":6716,"tirunelvali":6717,"northampt":6718,"occupy":6719,"recognise":6720,"airtel":6721,"bulbs":6722,"bhaji":6723,"bristol":6724,"cshnumbr":6725,"cousin":6726,"durban":6727,"dhina":6728,"ebay":6729,"ecst":6730,"epsilon":6731,"fgkslp":6732,"furniture":6733,"ganesh":6734,"gastroenter":6735,"gibbs":6736,"hsbc":6737,"hanuman":6738,"hppnss":6739,"kaiez":6740,"kothi":6741,"kavalan":6742,"kappa":6743,"lsnumbrhb":6744,"lccltd":6745,"mouth":6746,"mesages":6747,"munsters":6748,"mokka":6749,"mitsake":6750,"nasty":6751,"nervous":6752,"nnumbrdx":6753,"oooh":6754,"otside":6755,"pimples":6756,"pandy":6757,"river":6758,"rstm":6759,"royal":6760,"rhythm":6761,"snogs":6762,"tacos":6763,"tissco":6764,"usher":6765,"vague":6766,"vaazhth":6767,"widelive":6768,"zindgi":6769,"##ukkal":6770,"##uviri":6771,"##cmnumbrxn":6772,"theres":6773,"thousands":6774,"numbrldnwnumbranumbr":6775,"numbrgeva":6776,"numbrrcv":6777,"numbrovernumbr":6778,"toshiba":6779,"animation":6780,"##edinto":6781,"##ayuthe":6782,"##itinadew":6783,"innocent":6784,"cappuccin":6785,"causing":6786,"itwhichturn":6787,"reverse":6788,"reckon":6789,"recession":6790,"stretch":6791,"stamped":6792,"shampain":6793,"loxahatchee":6794,"oranges":6795,"chances":6796,"chocolate":6797,"frauds":6798,"plaza":6799,"priscilla":6800,"algarve":6801,"alaipayuthe":6802,"defeat":6803,"deeraj":6804,"dehyd":6805,"splleing":6806,"console":6807,"minmoremobsems":6808,"txttowin":6809,"phoenix":6810,"sheffield":6811,"maangalyam":6812,"exmpel":6813,"unbelievable":6814,"unintention":6815,"unemployed":6816,"unbreakable":6817,"messaging":6818,"truffles":6819,"babysit":6820,"mojibiola":6821,"academic":6822,"aclnumbrpm":6823,"blonde":6824,"morefrmmob":6825,"compromised":6826,"fujitsu":6827,"application":6828,"applebees":6829,"disclose":6830,"explosive":6831,"scratch":6832,"scotsman":6833,"partnership":6834,"##movieclub":6835,"xxxmobilemovieclub":6836,"laundry":6837,"addamsfa":6838,"sweetheart":6839,"dippeditinadew":6840,"numbrwaxsto":6841,"simpler":6842,"indyarocks":6843,"undrstnd":6844,"interflora":6845,"poboxnumbrnnumbrt":6846,"poboxnumbrwnumbrtgnumbrp":6847,"dateboxnumbressexcmnumbrxn":6848,"inconsiderate":6849,"grnumbrprizes":6850,"picsfreenumbr":6851,"retrieve":6852,"warranty":6853,"politicians":6854,"anniversary":6855,"gaytextbuddy":6856,"movietrivia":6857,"onumbrfwd":6858,"keralacircle":6859,"##poboxnumbrponumbrwa":6860,"expressoffer":6861,"goldviking":6862,"aeronautics":6863,"shracomorsglsuplt":6864,"accommodation":6865,"wihtuot":6866,"northampton":6867,"gastroenteritis":6868,"vaazhthukkal":6869,"numbrldnwnumbranumbrrwnumbr":6870,"cappuccino":6871,"itwhichturnedinto":6872,"minmoremobsemspoboxnumbrponumbrwa":6873}}}